{
  "version": "1.0",
  "truncation": null,
  "padding": null,
  "added_tokens": [
    {
      "id": 0,
      "content": "[PAD]",
      "single_word": false,
      "lstrip": false,
      "rstrip": false,
      "normalized": false,
      "special": true
    },
    {
      "id": 1,
      "content": "[UNK]",
      "single_word": false,
      "lstrip": false,
      "rstrip": false,
      "normalized": false,
      "special": true
    },
    {
      "id": 2,
      "content": "[CLS]",
      "single_word": false,
      "lstrip": false,
      "rstrip": false,
      "normalized": false,
      "special": true
    },
    {
      "id": 3,
      "content": "[SEP]",
      "single_word": false,
      "lstrip": false,
      "rstrip": false,
      "normalized": false,
      "special": true
    },
    {
      "id": 4,
      "content": "[MASK]",
      "single_word": false,
      "lstrip": false,
      "rstrip": false,
      "normalized": false,
      "special": true
    }
  ],
  "normalizer": null,
  "pre_tokenizer": {
    "type": "Whitespace"
  },
  "post_processor": {
    "type": "TemplateProcessing",
    "single": [
      {
        "SpecialToken": {
          "id": "[CLS]",
          "type_id": 0
        }
      },
      {
        "Sequence": {
          "id": "A",
          "type_id": 0
        }
      },
      {
        "SpecialToken": {
          "id": "[SEP]",
          "type_id": 0
        }
      }
    ],
    "pair": [
      {
        "SpecialToken": {
          "id": "[CLS]",
          "type_id": 0
        }
      },
      {
        "Sequence": {
          "id": "A",
          "type_id": 0
        }
      },
      {
        "SpecialToken": {
          "id": "[SEP]",
          "type_id": 0
        }
      },
      {
        "Sequence": {
          "id": "B",
          "type_id": 1
        }
      },
      {
        "SpecialToken": {
          "id": "[SEP]",
          "type_id": 1
        }
      }
    ],
    "special_tokens": {
      "[CLS]": {
        "id": "[CLS]",
        "ids": [
          2
        ],
        "tokens": [
          "[CLS]"
        ]
      },
      "[SEP]": {
        "id": "[SEP]",
        "ids": [
          3
        ],
        "tokens": [
          "[SEP]"
        ]
      }
    }
  },
  "decoder": null,
  "model": {
    "type": "BPE",
    "dropout": null,
    "unk_token": "[UNK]",
    "continuing_subword_prefix": null,
    "end_of_word_suffix": null,
    "fuse_unk": false,
    "byte_fallback": false,
    "ignore_merges": false,
    "vocab": {
      "[PAD]": 0,
      "[UNK]": 1,
      "[CLS]": 2,
      "[SEP]": 3,
      "[MASK]": 4,
      "\u0000": 5,
      "\u0013": 6,
      "!": 7,
      "\"": 8,
      "#": 9,
      "$": 10,
      "%": 11,
      "&": 12,
      "'": 13,
      "(": 14,
      ")": 15,
      "*": 16,
      "+": 17,
      ",": 18,
      "-": 19,
      ".": 20,
      "/": 21,
      "0": 22,
      "1": 23,
      "2": 24,
      "3": 25,
      "4": 26,
      "5": 27,
      "6": 28,
      "7": 29,
      "8": 30,
      "9": 31,
      ":": 32,
      ";": 33,
      "<": 34,
      "=": 35,
      ">": 36,
      "?": 37,
      "@": 38,
      "A": 39,
      "B": 40,
      "C": 41,
      "D": 42,
      "E": 43,
      "F": 44,
      "G": 45,
      "H": 46,
      "I": 47,
      "J": 48,
      "K": 49,
      "L": 50,
      "M": 51,
      "N": 52,
      "O": 53,
      "P": 54,
      "Q": 55,
      "R": 56,
      "S": 57,
      "T": 58,
      "U": 59,
      "V": 60,
      "W": 61,
      "X": 62,
      "Y": 63,
      "Z": 64,
      "[": 65,
      "\\": 66,
      "]": 67,
      "^": 68,
      "_": 69,
      "`": 70,
      "a": 71,
      "b": 72,
      "c": 73,
      "d": 74,
      "e": 75,
      "f": 76,
      "g": 77,
      "h": 78,
      "i": 79,
      "j": 80,
      "k": 81,
      "l": 82,
      "m": 83,
      "n": 84,
      "o": 85,
      "p": 86,
      "q": 87,
      "r": 88,
      "s": 89,
      "t": 90,
      "u": 91,
      "v": 92,
      "w": 93,
      "x": 94,
      "y": 95,
      "z": 96,
      "{": 97,
      "|": 98,
      "}": 99,
      "~": 100,
      "¢": 101,
      "£": 102,
      "¥": 103,
      "¦": 104,
      "§": 105,
      "¨": 106,
      "©": 107,
      "ª": 108,
      "«": 109,
      "¬": 110,
      "­": 111,
      "®": 112,
      "°": 113,
      "±": 114,
      "²": 115,
      "³": 116,
      "´": 117,
      "µ": 118,
      "¶": 119,
      "·": 120,
      "¹": 121,
      "º": 122,
      "»": 123,
      "¼": 124,
      "½": 125,
      "¾": 126,
      "¿": 127,
      "Á": 128,
      "Â": 129,
      "Ä": 130,
      "Å": 131,
      "Æ": 132,
      "Ç": 133,
      "É": 134,
      "Í": 135,
      "Î": 136,
      "Ð": 137,
      "Ó": 138,
      "Ö": 139,
      "×": 140,
      "Ø": 141,
      "Ú": 142,
      "Ü": 143,
      "ß": 144,
      "à": 145,
      "á": 146,
      "â": 147,
      "ã": 148,
      "ä": 149,
      "å": 150,
      "æ": 151,
      "ç": 152,
      "è": 153,
      "é": 154,
      "ê": 155,
      "ë": 156,
      "ì": 157,
      "í": 158,
      "î": 159,
      "ï": 160,
      "ð": 161,
      "ñ": 162,
      "ò": 163,
      "ó": 164,
      "ô": 165,
      "ö": 166,
      "÷": 167,
      "ø": 168,
      "ù": 169,
      "ú": 170,
      "û": 171,
      "ü": 172,
      "ý": 173,
      "þ": 174,
      "ÿ": 175,
      "Ā": 176,
      "ā": 177,
      "ă": 178,
      "ć": 179,
      "Č": 180,
      "č": 181,
      "ď": 182,
      "Đ": 183,
      "đ": 184,
      "ē": 185,
      "ĕ": 186,
      "ę": 187,
      "ě": 188,
      "ğ": 189,
      "ġ": 190,
      "ħ": 191,
      "Ī": 192,
      "ī": 193,
      "ĭ": 194,
      "İ": 195,
      "ı": 196,
      "ł": 197,
      "ń": 198,
      "ŋ": 199,
      "Ō": 200,
      "ō": 201,
      "ŏ": 202,
      "ő": 203,
      "œ": 204,
      "ř": 205,
      "Ś": 206,
      "ś": 207,
      "Ş": 208,
      "ş": 209,
      "Š": 210,
      "š": 211,
      "ū": 212,
      "ŭ": 213,
      "ų": 214,
      "ŷ": 215,
      "Ž": 216,
      "ž": 217,
      "ơ": 218,
      "ư": 219,
      "ǎ": 220,
      "ǐ": 221,
      "ǒ": 222,
      "ǔ": 223,
      "ǚ": 224,
      "ǝ": 225,
      "ǣ": 226,
      "Ǧ": 227,
      "ǵ": 228,
      "ș": 229,
      "ɐ": 230,
      "ɑ": 231,
      "ɒ": 232,
      "ɔ": 233,
      "ɕ": 234,
      "ə": 235,
      "ɚ": 236,
      "ɛ": 237,
      "ɜ": 238,
      "ɟ": 239,
      "ɡ": 240,
      "ɣ": 241,
      "ɤ": 242,
      "ɥ": 243,
      "ɦ": 244,
      "ɨ": 245,
      "ɪ": 246,
      "ɫ": 247,
      "ɬ": 248,
      "ɱ": 249,
      "ɲ": 250,
      "ɳ": 251,
      "ɵ": 252,
      "ɷ": 253,
      "ɹ": 254,
      "ɾ": 255,
      "ʀ": 256,
      "ʁ": 257,
      "ʃ": 258,
      "ʇ": 259,
      "ʉ": 260,
      "ʊ": 261,
      "ʋ": 262,
      "ʌ": 263,
      "ʎ": 264,
      "ʏ": 265,
      "ʑ": 266,
      "ʒ": 267,
      "ʔ": 268,
      "ʕ": 269,
      "ʝ": 270,
      "ʤ": 271,
      "ʰ": 272,
      "ʱ": 273,
      "ʲ": 274,
      "ʳ": 275,
      "ʷ": 276,
      "ʺ": 277,
      "ʻ": 278,
      "ʼ": 279,
      "ʾ": 280,
      "ʿ": 281,
      "ˀ": 282,
      "ˆ": 283,
      "ˇ": 284,
      "ˈ": 285,
      "ˌ": 286,
      "ː": 287,
      "ˑ": 288,
      "˚": 289,
      "˜": 290,
      "ˠ": 291,
      "ˤ": 292,
      "́": 293,
      "̃": 294,
      "̄": 295,
      "̅": 296,
      "̇": 297,
      "̈": 298,
      "̊": 299,
      "̋": 300,
      "̌": 301,
      "̕": 302,
      "̝": 303,
      "̣": 304,
      "̧": 305,
      "̨": 306,
      "̪": 307,
      "̯": 308,
      "̴": 309,
      "̶": 310,
      "̸": 311,
      "̺": 312,
      "͝": 313,
      "͞": 314,
      "͡": 315,
      ";": 316,
      "ΐ": 317,
      "Θ": 318,
      "Σ": 319,
      "Φ": 320,
      "ά": 321,
      "έ": 322,
      "ή": 323,
      "ί": 324,
      "α": 325,
      "β": 326,
      "γ": 327,
      "δ": 328,
      "ε": 329,
      "ζ": 330,
      "η": 331,
      "θ": 332,
      "ι": 333,
      "κ": 334,
      "λ": 335,
      "μ": 336,
      "ν": 337,
      "ξ": 338,
      "ο": 339,
      "π": 340,
      "ρ": 341,
      "ς": 342,
      "σ": 343,
      "τ": 344,
      "υ": 345,
      "φ": 346,
      "χ": 347,
      "ψ": 348,
      "ω": 349,
      "ό": 350,
      "ύ": 351,
      "ώ": 352,
      "ϕ": 353,
      "ϩ": 354,
      "Є": 355,
      "а": 356,
      "б": 357,
      "в": 358,
      "г": 359,
      "д": 360,
      "е": 361,
      "ж": 362,
      "з": 363,
      "и": 364,
      "й": 365,
      "к": 366,
      "л": 367,
      "м": 368,
      "н": 369,
      "о": 370,
      "п": 371,
      "р": 372,
      "с": 373,
      "т": 374,
      "у": 375,
      "ф": 376,
      "х": 377,
      "ц": 378,
      "ч": 379,
      "ш": 380,
      "ъ": 381,
      "ь": 382,
      "я": 383,
      "ё": 384,
      "њ": 385,
      "ա": 386,
      "գ": 387,
      "ե": 388,
      "յ": 389,
      "ն": 390,
      "ո": 391,
      "ռ": 392,
      "ւ": 393,
      "֣": 394,
      "ְ": 395,
      "ֲ": 396,
      "ִ": 397,
      "ֵ": 398,
      "ַ": 399,
      "ָ": 400,
      "ֹ": 401,
      "ֻ": 402,
      "ּ": 403,
      "ׁ": 404,
      "א": 405,
      "ב": 406,
      "ג": 407,
      "ד": 408,
      "ה": 409,
      "ו": 410,
      "ז": 411,
      "ח": 412,
      "ט": 413,
      "י": 414,
      "כ": 415,
      "ל": 416,
      "ם": 417,
      "מ": 418,
      "ן": 419,
      "נ": 420,
      "ס": 421,
      "ע": 422,
      "פ": 423,
      "צ": 424,
      "ק": 425,
      "ר": 426,
      "ש": 427,
      "ת": 428,
      "،": 429,
      "ؓ": 430,
      "؜": 431,
      "؟": 432,
      "ء": 433,
      "أ": 434,
      "إ": 435,
      "ا": 436,
      "ب": 437,
      "ة": 438,
      "ت": 439,
      "ج": 440,
      "ح": 441,
      "خ": 442,
      "د": 443,
      "ذ": 444,
      "ر": 445,
      "ز": 446,
      "س": 447,
      "ش": 448,
      "ص": 449,
      "ض": 450,
      "ط": 451,
      "ع": 452,
      "غ": 453,
      "ف": 454,
      "ق": 455,
      "ك": 456,
      "ل": 457,
      "م": 458,
      "ن": 459,
      "ه": 460,
      "و": 461,
      "ى": 462,
      "ي": 463,
      "ً": 464,
      "ٌ": 465,
      "َ": 466,
      "ُ": 467,
      "ِ": 468,
      "ّ": 469,
      "ْ": 470,
      "ٹ": 471,
      "پ": 472,
      "چ": 473,
      "ڌ": 474,
      "ڎ": 475,
      "ڑ": 476,
      "ښ": 477,
      "ڢ": 478,
      "ک": 479,
      "گ": 480,
      "ھ": 481,
      "ہ": 482,
      "ی": 483,
      "ې": 484,
      "ܐ": 485,
      "ܘ": 486,
      "ܟ": 487,
      "ܡ": 488,
      "ܪ": 489,
      "ܳ": 490,
      "ܾ": 491,
      "݁": 492,
      "݆": 493,
      "ހ": 494,
      "ރ": 495,
      "އ": 496,
      "ވ": 497,
      "މ": 498,
      "ދ": 499,
      "ގ": 500,
      "ޔ": 501,
      "ޖ": 502,
      "ާ": 503,
      "ި": 504,
      "ު": 505,
      "ޫ": 506,
      "ެ": 507,
      "ޭ": 508,
      "ް": 509,
      "ࠍ": 510,
      "ं": 511,
      "अ": 512,
      "आ": 513,
      "इ": 514,
      "उ": 515,
      "ए": 516,
      "क": 517,
      "ख": 518,
      "ग": 519,
      "घ": 520,
      "ङ": 521,
      "च": 522,
      "छ": 523,
      "ज": 524,
      "ञ": 525,
      "ट": 526,
      "ठ": 527,
      "ड": 528,
      "ण": 529,
      "त": 530,
      "द": 531,
      "न": 532,
      "प": 533,
      "ब": 534,
      "म": 535,
      "य": 536,
      "र": 537,
      "ल": 538,
      "व": 539,
      "श": 540,
      "ष": 541,
      "स": 542,
      "ह": 543,
      "़": 544,
      "ा": 545,
      "ि": 546,
      "ी": 547,
      "ु": 548,
      "ू": 549,
      "े": 550,
      "ै": 551,
      "ो": 552,
      "्": 553,
      "অ": 554,
      "জ": 555,
      "দ": 556,
      "ধ": 557,
      "ন": 558,
      "র": 559,
      "স": 560,
      "া": 561,
      "ি": 562,
      "ু": 563,
      "্": 564,
      "ਅ": 565,
      "ਖ": 566,
      "ਗ": 567,
      "ਜ": 568,
      "ਤ": 569,
      "ਦ": 570,
      "ਧ": 571,
      "ਨ": 572,
      "ਪ": 573,
      "ਮ": 574,
      "ਰ": 575,
      "ਲ": 576,
      "ਵ": 577,
      "ਸ": 578,
      "਼": 579,
      "ਾ": 580,
      "ਿ": 581,
      "ੀ": 582,
      "ੁ": 583,
      "੍": 584,
      "ੜ": 585,
      "અ": 586,
      "જ": 587,
      "ડ": 588,
      "દ": 589,
      "ધ": 590,
      "ન": 591,
      "ર": 592,
      "લ": 593,
      "વ": 594,
      "સ": 595,
      "ા": 596,
      "િ": 597,
      "ી": 598,
      "ુ": 599,
      "્": 600,
      "૙": 601,
      "૰": 602,
      "அ": 603,
      "எ": 604,
      "ஒ": 605,
      "க": 606,
      "ச": 607,
      "ஜ": 608,
      "ட": 609,
      "ண": 610,
      "த": 611,
      "ந": 612,
      "ன": 613,
      "ப": 614,
      "ம": 615,
      "ய": 616,
      "ர": 617,
      "ற": 618,
      "ல": 619,
      "ள": 620,
      "வ": 621,
      "ஸ": 622,
      "ா": 623,
      "ி": 624,
      "ு": 625,
      "ெ": 626,
      "ே": 627,
      "ை": 628,
      "்": 629,
      "అ": 630,
      "జ": 631,
      "ద": 632,
      "ధ": 633,
      "న": 634,
      "మ": 635,
      "య": 636,
      "ర": 637,
      "ల": 638,
      "వ": 639,
      "స": 640,
      "ా": 641,
      "ి": 642,
      "ు": 643,
      "్": 644,
      "ಅ": 645,
      "ಜ": 646,
      "ದ": 647,
      "ಧ": 648,
      "ನ": 649,
      "ರ": 650,
      "ಸ": 651,
      "ಾ": 652,
      "ಿ": 653,
      "ು": 654,
      "್": 655,
      "അ": 656,
      "ജ": 657,
      "ദ": 658,
      "ധ": 659,
      "ന": 660,
      "ര": 661,
      "സ": 662,
      "ാ": 663,
      "ി": 664,
      "ു": 665,
      "്": 666,
      "฀": 667,
      "ก": 668,
      "ค": 669,
      "ง": 670,
      "ด": 671,
      "ต": 672,
      "ท": 673,
      "ธ": 674,
      "น": 675,
      "บ": 676,
      "ป": 677,
      "พ": 678,
      "ม": 679,
      "ย": 680,
      "ร": 681,
      "ล": 682,
      "ว": 683,
      "ส": 684,
      "ห": 685,
      "อ": 686,
      "ะ": 687,
      "า": 688,
      "ิ": 689,
      "ึ": 690,
      "ื": 691,
      "ู": 692,
      "฿": 693,
      "เ": 694,
      "โ": 695,
      "ไ": 696,
      "่": 697,
      "้": 698,
      "์": 699,
      "๒": 700,
      "་": 701,
      "༠": 702,
      "ཏ": 703,
      "པ": 704,
      "ལ": 705,
      "ོ": 706,
      "ᄟ": 707,
      "ᄭ": 708,
      "ረ": 709,
      "ቕ": 710,
      "ᐟ": 711,
      "ᐧ": 712,
      "ᑯ": 713,
      "ᒣ": 714,
      "ᒧ": 715,
      "ᓱ": 716,
      "ᕚ": 717,
      "ᖹ": 718,
      "ᖽ": 719,
      "ᖿ": 720,
      "គ": 721,
      "ង": 722,
      "ត": 723,
      "ធ": 724,
      "ន": 725,
      "ប": 726,
      "យ": 727,
      "រ": 728,
      "វ": 729,
      "ស": 730,
      "អ": 731,
      "ុ": 732,
      "ោ": 733,
      "ៈ": 734,
      "្": 735,
      "ᵊ": 736,
      "ḍ": 737,
      "ḏ": 738,
      "Ḥ": 739,
      "ḥ": 740,
      "ṃ": 741,
      "ṇ": 742,
      "ṛ": 743,
      "ṣ": 744,
      "ṭ": 745,
      "ạ": 746,
      "ả": 747,
      "ầ": 748,
      "ắ": 749,
      "ễ": 750,
      "ệ": 751,
      "ị": 752,
      "Ọ": 753,
      "ọ": 754,
      "ỏ": 755,
      "ồ": 756,
      "ỗ": 757,
      "ộ": 758,
      "ớ": 759,
      "ờ": 760,
      "ở": 761,
      "ụ": 762,
      "ự": 763,
      "ἀ": 764,
      "ἁ": 765,
      "ἄ": 766,
      "ἐ": 767,
      "ἑ": 768,
      "ἔ": 769,
      "ἕ": 770,
      "ἠ": 771,
      "ἦ": 772,
      "ἰ": 773,
      "ἱ": 774,
      "ἴ": 775,
      "ἵ": 776,
      "ἶ": 777,
      "ἷ": 778,
      "ὀ": 779,
      "ὁ": 780,
      "ὄ": 781,
      "ὑ": 782,
      "ὠ": 783,
      "ὴ": 784,
      "ὸ": 785,
      "ό": 786,
      "ᾶ": 787,
      "ῆ": 788,
      "ῖ": 789,
      "ῥ": 790,
      "ῦ": 791,
      "ῶ": 792,
      "ῷ": 793,
      "​": 794,
      "‌": 795,
      "‍": 796,
      "‎": 797,
      "‏": 798,
      "‐": 799,
      "‑": 800,
      "‒": 801,
      "–": 802,
      "—": 803,
      "―": 804,
      "‘": 805,
      "’": 806,
      "‚": 807,
      "“": 808,
      "”": 809,
      "„": 810,
      "†": 811,
      "‡": 812,
      "•": 813,
      "…": 814,
      "‪": 815,
      "‬": 816,
      "′": 817,
      "″": 818,
      "›": 819,
      "⁄": 820,
      "⁊": 821,
      "⁕": 822,
      "⁰": 823,
      "ⁱ": 824,
      "₂": 825,
      "₃": 826,
      "₣": 827,
      "₤": 828,
      "₨": 829,
      "€": 830,
      "₱": 831,
      "₹": 832,
      "₺": 833,
      "⃝": 834,
      "℃": 835,
      "℉": 836,
      "ℓ": 837,
      "℔": 838,
      "№": 839,
      "™": 840,
      "⅓": 841,
      "⅔": 842,
      "⅛": 843,
      "⅜": 844,
      "←": 845,
      "↑": 846,
      "→": 847,
      "↓": 848,
      "↔": 849,
      "↵": 850,
      "⇒": 851,
      "⇓": 852,
      "⇔": 853,
      "⇠": 854,
      "∀": 855,
      "∂": 856,
      "∃": 857,
      "∅": 858,
      "∆": 859,
      "∇": 860,
      "∈": 861,
      "∏": 862,
      "∑": 863,
      "−": 864,
      "∗": 865,
      "√": 866,
      "∞": 867,
      "∥": 868,
      "∧": 869,
      "∩": 870,
      "∪": 871,
      "∼": 872,
      "≅": 873,
      "≈": 874,
      "≠": 875,
      "≡": 876,
      "≤": 877,
      "≥": 878,
      "≫": 879,
      "≻": 880,
      "⊕": 881,
      "⊙": 882,
      "⊤": 883,
      "⊺": 884,
      "⋅": 885,
      "⋮": 886,
      "⋯": 887,
      "⌃": 888,
      "⌘": 889,
      "⌧": 890,
      "⎯": 891,
      "⏐": 892,
      "␣": 893,
      "ⓘ": 894,
      "─": 895,
      "│": 896,
      "┬": 897,
      "▀": 898,
      "█": 899,
      "■": 900,
      "□": 901,
      "▲": 902,
      "△": 903,
      "▴": 904,
      "▶": 905,
      "►": 906,
      "▼": 907,
      "◉": 908,
      "◊": 909,
      "○": 910,
      "◌": 911,
      "●": 912,
      "◘": 913,
      "◦": 914,
      "☆": 915,
      "☉": 916,
      "☰": 917,
      "☺": 918,
      "♀": 919,
      "♂": 920,
      "♈": 921,
      "♐": 922,
      "♑": 923,
      "♒": 924,
      "♠": 925,
      "♥": 926,
      "♦": 927,
      "✒": 928,
      "✓": 929,
      "✔": 930,
      "✕": 931,
      "✦": 932,
      "✱": 933,
      "❤": 934,
      "➔": 935,
      "➡": 936,
      "⟨": 937,
      "⟩": 938,
      "⨉": 939,
      "⩽": 940,
      "ⲁ": 941,
      "ⲏ": 942,
      "ⲓ": 943,
      "Ⲕ": 944,
      "ⲣ": 945,
      "ⴰ": 946,
      "ⴱ": 947,
      "ⵕ": 948,
      "ⵟ": 949,
      "。": 950,
      "々": 951,
      "あ": 952,
      "い": 953,
      "う": 954,
      "お": 955,
      "か": 956,
      "が": 957,
      "き": 958,
      "く": 959,
      "け": 960,
      "こ": 961,
      "さ": 962,
      "し": 963,
      "じ": 964,
      "す": 965,
      "せ": 966,
      "そ": 967,
      "ち": 968,
      "っ": 969,
      "つ": 970,
      "で": 971,
      "と": 972,
      "な": 973,
      "に": 974,
      "の": 975,
      "は": 976,
      "ば": 977,
      "ひ": 978,
      "べ": 979,
      "ま": 980,
      "み": 981,
      "め": 982,
      "も": 983,
      "ゃ": 984,
      "ら": 985,
      "り": 986,
      "る": 987,
      "れ": 988,
      "ろ": 989,
      "わ": 990,
      "ん": 991,
      "ア": 992,
      "ィ": 993,
      "イ": 994,
      "ウ": 995,
      "ェ": 996,
      "カ": 997,
      "ガ": 998,
      "キ": 999,
      "ギ": 1000,
      "ク": 1001,
      "グ": 1002,
      "コ": 1003,
      "ゴ": 1004,
      "サ": 1005,
      "ザ": 1006,
      "シ": 1007,
      "ジ": 1008,
      "ス": 1009,
      "ゼ": 1010,
      "タ": 1011,
      "ダ": 1012,
      "ッ": 1013,
      "テ": 1014,
      "ト": 1015,
      "ド": 1016,
      "ナ": 1017,
      "ニ": 1018,
      "ネ": 1019,
      "ビ": 1020,
      "フ": 1021,
      "ブ": 1022,
      "プ": 1023,
      "ヘ": 1024,
      "ペ": 1025,
      "ボ": 1026,
      "マ": 1027,
      "メ": 1028,
      "ョ": 1029,
      "ラ": 1030,
      "リ": 1031,
      "ル": 1032,
      "レ": 1033,
      "ロ": 1034,
      "ン": 1035,
      "ヶ": 1036,
      "・": 1037,
      "ー": 1038,
      "㽋": 1039,
      "一": 1040,
      "丁": 1041,
      "万": 1042,
      "三": 1043,
      "上": 1044,
      "下": 1045,
      "中": 1046,
      "丸": 1047,
      "为": 1048,
      "丼": 1049,
      "之": 1050,
      "乔": 1051,
      "也": 1052,
      "了": 1053,
      "二": 1054,
      "五": 1055,
      "亜": 1056,
      "亡": 1057,
      "交": 1058,
      "亩": 1059,
      "京": 1060,
      "人": 1061,
      "代": 1062,
      "以": 1063,
      "们": 1064,
      "伎": 1065,
      "会": 1066,
      "佃": 1067,
      "但": 1068,
      "保": 1069,
      "信": 1070,
      "倭": 1071,
      "假": 1072,
      "元": 1073,
      "入": 1074,
      "公": 1075,
      "共": 1076,
      "冰": 1077,
      "决": 1078,
      "准": 1079,
      "出": 1080,
      "刃": 1081,
      "分": 1082,
      "切": 1083,
      "初": 1084,
      "利": 1085,
      "到": 1086,
      "前": 1087,
      "功": 1088,
      "动": 1089,
      "化": 1090,
      "北": 1091,
      "区": 1092,
      "十": 1093,
      "千": 1094,
      "南": 1095,
      "原": 1096,
      "去": 1097,
      "及": 1098,
      "发": 1099,
      "古": 1100,
      "号": 1101,
      "司": 1102,
      "各": 1103,
      "名": 1104,
      "后": 1105,
      "味": 1106,
      "和": 1107,
      "哈": 1108,
      "啟": 1109,
      "喰": 1110,
      "噌": 1111,
      "四": 1112,
      "団": 1113,
      "国": 1114,
      "图": 1115,
      "圆": 1116,
      "園": 1117,
      "在": 1118,
      "地": 1119,
      "城": 1120,
      "基": 1121,
      "報": 1122,
      "士": 1123,
      "外": 1124,
      "大": 1125,
      "天": 1126,
      "太": 1127,
      "奈": 1128,
      "套": 1129,
      "女": 1130,
      "奴": 1131,
      "妖": 1132,
      "始": 1133,
      "姚": 1134,
      "媽": 1135,
      "子": 1136,
      "孔": 1137,
      "宫": 1138,
      "宿": 1139,
      "寺": 1140,
      "寿": 1141,
      "小": 1142,
      "少": 1143,
      "尔": 1144,
      "层": 1145,
      "居": 1146,
      "展": 1147,
      "岡": 1148,
      "峰": 1149,
      "島": 1150,
      "崎": 1151,
      "川": 1152,
      "币": 1153,
      "市": 1154,
      "師": 1155,
      "幣": 1156,
      "干": 1157,
      "平": 1158,
      "年": 1159,
      "幽": 1160,
      "庄": 1161,
      "建": 1162,
      "开": 1163,
      "弁": 1164,
      "式": 1165,
      "弓": 1166,
      "张": 1167,
      "彼": 1168,
      "徒": 1169,
      "得": 1170,
      "心": 1171,
      "忘": 1172,
      "怪": 1173,
      "总": 1174,
      "意": 1175,
      "戈": 1176,
      "我": 1177,
      "戰": 1178,
      "戸": 1179,
      "所": 1180,
      "才": 1181,
      "报": 1182,
      "拳": 1183,
      "捐": 1184,
      "捞": 1185,
      "探": 1186,
      "推": 1187,
      "撈": 1188,
      "擂": 1189,
      "收": 1190,
      "改": 1191,
      "斎": 1192,
      "新": 1193,
      "旅": 1194,
      "旗": 1195,
      "日": 1196,
      "明": 1197,
      "星": 1198,
      "昨": 1199,
      "是": 1200,
      "普": 1201,
      "暁": 1202,
      "更": 1203,
      "最": 1204,
      "月": 1205,
      "期": 1206,
      "木": 1207,
      "本": 1208,
      "東": 1209,
      "板": 1210,
      "株": 1211,
      "核": 1212,
      "栽": 1213,
      "桐": 1214,
      "梅": 1215,
      "椎": 1216,
      "次": 1217,
      "款": 1218,
      "歌": 1219,
      "武": 1220,
      "死": 1221,
      "比": 1222,
      "民": 1223,
      "水": 1224,
      "汁": 1225,
      "汉": 1226,
      "江": 1227,
      "沥": 1228,
      "泡": 1229,
      "波": 1230,
      "津": 1231,
      "海": 1232,
      "清": 1233,
      "滨": 1234,
      "漢": 1235,
      "漫": 1236,
      "灵": 1237,
      "無": 1238,
      "焼": 1239,
      "煮": 1240,
      "熟": 1241,
      "玉": 1242,
      "现": 1243,
      "用": 1244,
      "田": 1245,
      "男": 1246,
      "画": 1247,
      "白": 1248,
      "百": 1249,
      "的": 1250,
      "盆": 1251,
      "直": 1252,
      "碎": 1253,
      "社": 1254,
      "神": 1255,
      "種": 1256,
      "空": 1257,
      "立": 1258,
      "章": 1259,
      "第": 1260,
      "粉": 1261,
      "精": 1262,
      "糸": 1263,
      "納": 1264,
      "索": 1265,
      "紧": 1266,
      "結": 1267,
      "線": 1268,
      "羅": 1269,
      "美": 1270,
      "者": 1271,
      "而": 1272,
      "舞": 1273,
      "节": 1274,
      "花": 1275,
      "苔": 1276,
      "英": 1277,
      "荘": 1278,
      "菜": 1279,
      "菱": 1280,
      "萬": 1281,
      "蕎": 1282,
      "藤": 1283,
      "行": 1284,
      "西": 1285,
      "親": 1286,
      "角": 1287,
      "言": 1288,
      "話": 1289,
      "語": 1290,
      "警": 1291,
      "议": 1292,
      "设": 1293,
      "语": 1294,
      "谷": 1295,
      "豆": 1296,
      "貢": 1297,
      "贩": 1298,
      "赛": 1299,
      "跆": 1300,
      "身": 1301,
      "軽": 1302,
      "软": 1303,
      "较": 1304,
      "过": 1305,
      "进": 1306,
      "远": 1307,
      "违": 1308,
      "连": 1309,
      "通": 1310,
      "道": 1311,
      "違": 1312,
      "郎": 1313,
      "部": 1314,
      "都": 1315,
      "酒": 1316,
      "酢": 1317,
      "酱": 1318,
      "醂": 1319,
      "里": 1320,
      "金": 1321,
      "鉄": 1322,
      "鑼": 1323,
      "間": 1324,
      "间": 1325,
      "际": 1326,
      "隘": 1327,
      "雪": 1328,
      "霊": 1329,
      "静": 1330,
      "鞏": 1331,
      "韩": 1332,
      "项": 1333,
      "食": 1334,
      "飯": 1335,
      "首": 1336,
      "馬": 1337,
      "馴": 1338,
      "駄": 1339,
      "駅": 1340,
      "鮨": 1341,
      "鸡": 1342,
      "麦": 1343,
      "麵": 1344,
      "麹": 1345,
      "龍": 1346,
      "龔": 1347,
      "龚": 1348,
      "ꜜ": 1349,
      "경": 1350,
      "고": 1351,
      "국": 1352,
      "김": 1353,
      "나": 1354,
      "내": 1355,
      "너": 1356,
      "넓": 1357,
      "다": 1358,
      "당": 1359,
      "덕": 1360,
      "도": 1361,
      "된": 1362,
      "라": 1363,
      "랑": 1364,
      "려": 1365,
      "로": 1366,
      "면": 1367,
      "멸": 1368,
      "못": 1369,
      "무": 1370,
      "미": 1371,
      "보": 1372,
      "어": 1373,
      "언": 1374,
      "에": 1375,
      "올": 1376,
      "위": 1377,
      "은": 1378,
      "인": 1379,
      "일": 1380,
      "잘": 1381,
      "장": 1382,
      "치": 1383,
      "킬": 1384,
      "터": 1385,
      "한": 1386,
      "해": 1387,
      "헐": 1388,
      "화": 1389,
      "": 1390,
      "": 1391,
      "": 1392,
      "": 1393,
      "": 1394,
      "": 1395,
      "": 1396,
      "": 1397,
      "": 1398,
      "": 1399,
      "": 1400,
      "": 1401,
      "": 1402,
      "": 1403,
      "": 1404,
      "": 1405,
      "": 1406,
      "": 1407,
      "": 1408,
      "": 1409,
      "": 1410,
      "": 1411,
      "": 1412,
      "": 1413,
      "": 1414,
      "": 1415,
      "": 1416,
      "": 1417,
      "": 1418,
      "": 1419,
      "": 1420,
      "": 1421,
      "": 1422,
      "": 1423,
      "": 1424,
      "": 1425,
      "": 1426,
      "": 1427,
      "": 1428,
      "": 1429,
      "": 1430,
      "": 1431,
      "": 1432,
      "": 1433,
      "": 1434,
      "": 1435,
      "": 1436,
      "": 1437,
      "": 1438,
      "": 1439,
      "": 1440,
      "": 1441,
      "": 1442,
      "": 1443,
      "": 1444,
      "": 1445,
      "": 1446,
      "": 1447,
      "": 1448,
      "": 1449,
      "": 1450,
      "": 1451,
      "": 1452,
      "": 1453,
      "": 1454,
      "ﬀ": 1455,
      "ﬁ": 1456,
      "ﬂ": 1457,
      "﷼": 1458,
      "﻿": 1459,
      "）": 1460,
      "Ｚ": 1461,
      "～": 1462,
      "｢": 1463,
      "｣": 1464,
      "￥": 1465,
      "🀎": 1466,
      "🍴": 1467,
      "🏼": 1468,
      "👌": 1469,
      "👍": 1470,
      "💪": 1471,
      "😉": 1472,
      "😋": 1473,
      "😍": 1474,
      "🙌": 1475,
      "th": 1476,
      "in": 1477,
      "an": 1478,
      "er": 1479,
      "on": 1480,
      "the": 1481,
      "re": 1482,
      "at": 1483,
      "or": 1484,
      "is": 1485,
      "es": 1486,
      "al": 1487,
      "en": 1488,
      "of": 1489,
      "ou": 1490,
      "ar": 1491,
      "ed": 1492,
      "to": 1493,
      "and": 1494,
      "as": 1495,
      "it": 1496,
      "ic": 1497,
      "ing": 1498,
      "st": 1499,
      "ro": 1500,
      "le": 1501,
      "ion": 1502,
      "he": 1503,
      "ac": 1504,
      "co": 1505,
      "ent": 1506,
      "me": 1507,
      "se": 1508,
      "il": 1509,
      "for": 1510,
      "ly": 1511,
      "ve": 1512,
      "de": 1513,
      "lo": 1514,
      "be": 1515,
      "are": 1516,
      "ch": 1517,
      "ct": 1518,
      "us": 1519,
      "you": 1520,
      "ge": 1521,
      "ver": 1522,
      "mp": 1523,
      "ter": 1524,
      "The": 1525,
      "ig": 1526,
      "ce": 1527,
      "wh": 1528,
      "ur": 1529,
      "mo": 1530,
      "ay": 1531,
      "ation": 1532,
      "ab": 1533,
      "id": 1534,
      "ul": 1535,
      "ol": 1536,
      "that": 1537,
      "ad": 1538,
      "con": 1539,
      "ir": 1540,
      "pro": 1541,
      "ith": 1542,
      "am": 1543,
      "per": 1544,
      "ut": 1545,
      "un": 1546,
      "pe": 1547,
      "od": 1548,
      "ow": 1549,
      "ot": 1550,
      "so": 1551,
      "with": 1552,
      "00": 1553,
      "tr": 1554,
      "su": 1555,
      "res": 1556,
      "ne": 1557,
      "li": 1558,
      "ts": 1559,
      "all": 1560,
      "ain": 1561,
      "oun": 1562,
      "te": 1563,
      "ate": 1564,
      "ther": 1565,
      "can": 1566,
      "um": 1567,
      "rom": 1568,
      "ti": 1569,
      "we": 1570,
      "ke": 1571,
      "ap": 1572,
      "fe": 1573,
      "ll": 1574,
      "ex": 1575,
      "from": 1576,
      "di": 1577,
      "by": 1578,
      "age": 1579,
      "est": 1580,
      "igh": 1581,
      "ill": 1582,
      "qu": 1583,
      "one": 1584,
      "your": 1585,
      "ment": 1586,
      "pl": 1587,
      "ha": 1588,
      "ri": 1589,
      "ess": 1590,
      "po": 1591,
      "do": 1592,
      "ci": 1593,
      "our": 1594,
      "si": 1595,
      "ally": 1596,
      "ma": 1597,
      "out": 1598,
      "ine": 1599,
      "ers": 1600,
      "ear": 1601,
      "In": 1602,
      "cl": 1603,
      "Th": 1604,
      "ld": 1605,
      "ity": 1606,
      "ag": 1607,
      "ty": 1608,
      "sh": 1609,
      "ant": 1610,
      "end": 1611,
      "ere": 1612,
      "art": 1613,
      "low": 1614,
      "ure": 1615,
      "ame": 1616,
      "gr": 1617,
      "ist": 1618,
      "ary": 1619,
      "act": 1620,
      "wor": 1621,
      "ich": 1622,
      "du": 1623,
      "ound": 1624,
      "ans": 1625,
      "com": 1626,
      "not": 1627,
      "op": 1628,
      "fo": 1629,
      "have": 1630,
      "ive": 1631,
      "ies": 1632,
      "use": 1633,
      "form": 1634,
      "comp": 1635,
      "up": 1636,
      "et": 1637,
      "any": 1638,
      "ated": 1639,
      "sy": 1640,
      "mon": 1641,
      "ction": 1642,
      "ca": 1643,
      "im": 1644,
      "which": 1645,
      "ph": 1646,
      "der": 1647,
      "was": 1648,
      "if": 1649,
      "dis": 1650,
      "other": 1651,
      ").": 1652,
      "ight": 1653,
      "min": 1654,
      "ast": 1655,
      "ort": 1656,
      "fer": 1657,
      "ical": 1658,
      "em": 1659,
      "ach": 1660,
      "ition": 1661,
      "om": 1662,
      "ta": 1663,
      "gh": 1664,
      "but": 1665,
      "ia": 1666,
      "gen": 1667,
      "used": 1668,
      "ase": 1669,
      "ong": 1670,
      "year": 1671,
      "will": 1672,
      "It": 1673,
      "sp": 1674,
      "this": 1675,
      "cre": 1676,
      "br": 1677,
      "el": 1678,
      "ous": 1679,
      "also": 1680,
      "ough": 1681,
      "more": 1682,
      "ree": 1683,
      "own": 1684,
      "ard": 1685,
      "its": 1686,
      "str": 1687,
      "ater": 1688,
      "cost": 1689,
      "20": 1690,
      "bo": 1691,
      "has": 1692,
      "ish": 1693,
      "ice": 1694,
      "most": 1695,
      "ks": 1696,
      "pr": 1697,
      "ber": 1698,
      "able": 1699,
      "ould": 1700,
      "ie": 1701,
      "cont": 1702,
      "ates": 1703,
      "ep": 1704,
      "ide": 1705,
      "name": 1706,
      "day": 1707,
      "spe": 1708,
      "ding": 1709,
      "ence": 1710,
      "than": 1711,
      "some": 1712,
      "av": 1713,
      "about": 1714,
      "cell": 1715,
      "may": 1716,
      "ace": 1717,
      "000": 1718,
      "king": 1719,
      "cor": 1720,
      "cent": 1721,
      "verage": 1722,
      "pre": 1723,
      "ust": 1724,
      "iv": 1725,
      "af": 1726,
      "bet": 1727,
      "ang": 1728,
      "ass": 1729,
      "An": 1730,
      "os": 1731,
      "fl": 1732,
      "wo": 1733,
      "ren": 1734,
      "ance": 1735,
      "fin": 1736,
      "over": 1737,
      "iz": 1738,
      "car": 1739,
      "red": 1740,
      "ial": 1741,
      "pres": 1742,
      "19": 1743,
      "sal": 1744,
      "blo": 1745,
      "clu": 1746,
      "10": 1747,
      "ite": 1748,
      "they": 1749,
      "cle": 1750,
      "average": 1751,
      "ms": 1752,
      "ens": 1753,
      "ack": 1754,
      "This": 1755,
      "oc": 1756,
      "ble": 1757,
      "med": 1758,
      "cess": 1759,
      "produ": 1760,
      "kn": 1761,
      "cur": 1762,
      "inclu": 1763,
      "bod": 1764,
      "ser": 1765,
      "stem": 1766,
      "call": 1767,
      "ular": 1768,
      "fic": 1769,
      "mer": 1770,
      "high": 1771,
      "gl": 1772,
      "ile": 1773,
      "ome": 1774,
      "row": 1775,
      "aw": 1776,
      "time": 1777,
      "..": 1778,
      "what": 1779,
      "dr": 1780,
      "into": 1781,
      "very": 1782,
      "how": 1783,
      "St": 1784,
      "mal": 1785,
      "go": 1786,
      "ck": 1787,
      "ick": 1788,
      "par": 1789,
      "their": 1790,
      "dif": 1791,
      "cy": 1792,
      "ween": 1793,
      "ob": 1794,
      "ip": 1795,
      "blood": 1796,
      "when": 1797,
      "like": 1798,
      "amp": 1799,
      "fr": 1800,
      "ions": 1801,
      "),": 1802,
      "two": 1803,
      "ors": 1804,
      "between": 1805,
      "no": 1806,
      "cause": 1807,
      "part": 1808,
      "body": 1809,
      "int": 1810,
      "fir": 1811,
      "ef": 1812,
      "bl": 1813,
      "ign": 1814,
      "ents": 1815,
      "get": 1816,
      "sur": 1817,
      "hy": 1818,
      "col": 1819,
      "des": 1820,
      "fect": 1821,
      "50": 1822,
      "lar": 1823,
      "ven": 1824,
      "system": 1825,
      "long": 1826,
      "ually": 1827,
      "If": 1828,
      "called": 1829,
      "ations": 1830,
      "ok": 1831,
      "cal": 1832,
      "ces": 1833,
      "ory": 1834,
      "ten": 1835,
      "les": 1836,
      "ual": 1837,
      "gy": 1838,
      "ian": 1839,
      "speci": 1840,
      "imp": 1841,
      "ind": 1842,
      "gre": 1843,
      "Wh": 1844,
      "such": 1845,
      "man": 1846,
      "ange": 1847,
      "who": 1848,
      "water": 1849,
      "hour": 1850,
      "thr": 1851,
      "ult": 1852,
      "ount": 1853,
      "che": 1854,
      "ue": 1855,
      "first": 1856,
      "years": 1857,
      "son": 1858,
      "Ch": 1859,
      "pos": 1860,
      "inter": 1861,
      "reg": 1862,
      "erat": 1863,
      "For": 1864,
      "ele": 1865,
      "way": 1866,
      "differ": 1867,
      "org": 1868,
      "need": 1869,
      "vel": 1870,
      "ful": 1871,
      "Un": 1872,
      "mar": 1873,
      "ople": 1874,
      "cr": 1875,
      "many": 1876,
      "common": 1877,
      "pt": 1878,
      "food": 1879,
      "where": 1880,
      "old": 1881,
      "cer": 1882,
      "air": 1883,
      "typ": 1884,
      "cond": 1885,
      "work": 1886,
      "tim": 1887,
      "bas": 1888,
      "tre": 1889,
      "ild": 1890,
      "port": 1891,
      "temp": 1892,
      "fore": 1893,
      "ire": 1894,
      "ak": 1895,
      "land": 1896,
      "15": 1897,
      "mus": 1898,
      "als": 1899,
      "ily": 1900,
      "ins": 1901,
      "dep": 1902,
      "only": 1903,
      "nor": 1904,
      "var": 1905,
      "vid": 1906,
      "ost": 1907,
      "hel": 1908,
      "peri": 1909,
      "12": 1910,
      "trans": 1911,
      "ating": 1912,
      "acter": 1913,
      "fun": 1914,
      "val": 1915,
      "bu": 1916,
      "ced": 1917,
      "au": 1918,
      "bre": 1919,
      "people": 1920,
      "mu": 1921,
      "num": 1922,
      "char": 1923,
      "found": 1924,
      "cons": 1925,
      "there": 1926,
      "cells": 1927,
      "through": 1928,
      "each": 1929,
      "dise": 1930,
      "requ": 1931,
      "less": 1932,
      "add": 1933,
      "ings": 1934,
      "ves": 1935,
      "gs": 1936,
      "depend": 1937,
      "alth": 1938,
      "main": 1939,
      "sub": 1940,
      "known": 1941,
      "ner": 1942,
      "ath": 1943,
      "mil": 1944,
      "ited": 1945,
      "should": 1946,
      "You": 1947,
      "fi": 1948,
      "ving": 1949,
      "je": 1950,
      "ments": 1951,
      "ys": 1952,
      "cho": 1953,
      "ons": 1954,
      "mat": 1955,
      "rel": 1956,
      "ds": 1957,
      "mean": 1958,
      "ative": 1959,
      "tal": 1960,
      "Re": 1961,
      "18": 1962,
      "En": 1963,
      "sm": 1964,
      "sk": 1965,
      "come": 1966,
      "prote": 1967,
      "gener": 1968,
      "ures": 1969,
      "does": 1970,
      "sto": 1971,
      "make": 1972,
      "different": 1973,
      "then": 1974,
      "person": 1975,
      "well": 1976,
      "usually": 1977,
      "ese": 1978,
      "ium": 1979,
      "organ": 1980,
      "after": 1981,
      "ious": 1982,
      "plan": 1983,
      "type": 1984,
      "ample": 1985,
      "new": 1986,
      "NA": 1987,
      "pay": 1988,
      "loc": 1989,
      "small": 1990,
      "ically": 1991,
      "been": 1992,
      "30": 1993,
      "month": 1994,
      "ss": 1995,
      "vol": 1996,
      "bon": 1997,
      "process": 1998,
      "uses": 1999,
      "under": 2000,
      "urn": 2001,
      "them": 2002,
      "ose": 2003,
      "made": 2004,
      "Al": 2005,
      "ever": 2006,
      "vis": 2007,
      "oup": 2008,
      "ail": 2009,
      "temperat": 2010,
      "200": 2011,
      "ting": 2012,
      "io": 2013,
      "take": 2014,
      "my": 2015,
      "days": 2016,
      "uring": 2017,
      "these": 2018,
      "vent": 2019,
      "set": 2020,
      "much": 2021,
      "ox": 2022,
      "cri": 2023,
      "stru": 2024,
      "pri": 2025,
      "often": 2026,
      "coun": 2027,
      "vers": 2028,
      "ger": 2029,
      "app": 2030,
      "help": 2031,
      "sel": 2032,
      "gram": 2033,
      "issu": 2034,
      "disease": 2035,
      "level": 2036,
      "her": 2037,
      "14": 2038,
      "contain": 2039,
      "ics": 2040,
      "pain": 2041,
      "ases": 2042,
      "De": 2043,
      "tain": 2044,
      "sing": 2045,
      "just": 2046,
      "around": 2047,
      "ub": 2048,
      "ject": 2049,
      "ved": 2050,
      "bab": 2051,
      "meric": 2052,
      "tern": 2053,
      "There": 2054,
      "gar": 2055,
      "ry": 2056,
      "xt": 2057,
      "lin": 2058,
      "log": 2059,
      "vir": 2060,
      "ise": 2061,
      "grow": 2062,
      "were": 2063,
      "minut": 2064,
      "sure": 2065,
      "salary": 2066,
      "pat": 2067,
      "tion": 2068,
      "Americ": 2069,
      "number": 2070,
      "ud": 2071,
      "ener": 2072,
      "Con": 2073,
      "ility": 2074,
      "ists": 2075,
      "Co": 2076,
      "eg": 2077,
      "fol": 2078,
      "sa": 2079,
      "example": 2080,
      "How": 2081,
      "mem": 2082,
      "lop": 2083,
      "rit": 2084,
      "ann": 2085,
      "off": 2086,
      "fact": 2087,
      "wee": 2088,
      "pop": 2089,
      "soci": 2090,
      "ze": 2091,
      "Ne": 2092,
      "state": 2093,
      "range": 2094,
      "side": 2095,
      "arch": 2096,
      "inst": 2097,
      "would": 2098,
      "back": 2099,
      "att": 2100,
      "try": 2101,
      "He": 2102,
      "formation": 2103,
      "As": 2104,
      "sol": 2105,
      "del": 2106,
      "ctions": 2107,
      "include": 2108,
      "comm": 2109,
      "ational": 2110,
      "temperature": 2111,
      "cul": 2112,
      "ted": 2113,
      "ages": 2114,
      "ities": 2115,
      "comple": 2116,
      "hum": 2117,
      "test": 2118,
      "read": 2119,
      "kes": 2120,
      "three": 2121,
      "term": 2122,
      "his": 2123,
      "ices": 2124,
      "see": 2125,
      "ters": 2126,
      "ress": 2127,
      "occur": 2128,
      "times": 2129,
      "Se": 2130,
      "clo": 2131,
      "dro": 2132,
      "same": 2133,
      "top": 2134,
      "ho": 2135,
      "squ": 2136,
      "eng": 2137,
      "resp": 2138,
      "because": 2139,
      "health": 2140,
      "group": 2141,
      "home": 2142,
      "elect": 2143,
      "child": 2144,
      "hours": 2145,
      "emp": 2146,
      "--": 2147,
      "igin": 2148,
      "rect": 2149,
      "They": 2150,
      "ural": 2151,
      "ra": 2152,
      "25": 2153,
      "using": 2154,
      "tic": 2155,
      "acti": 2156,
      "tract": 2157,
      "move": 2158,
      "place": 2159,
      "ism": 2160,
      "tra": 2161,
      "costs": 2162,
      "put": 2163,
      "stand": 2164,
      "condition": 2165,
      "sup": 2166,
      "order": 2167,
      "We": 2168,
      "down": 2169,
      "treat": 2170,
      "large": 2171,
      "13": 2172,
      "To": 2173,
      "sign": 2174,
      "minutes": 2175,
      "cts": 2176,
      "ning": 2177,
      "United": 2178,
      "ider": 2179,
      "nam": 2180,
      "16": 2181,
      "ric": 2182,
      "pan": 2183,
      "line": 2184,
      "velop": 2185,
      "lower": 2186,
      "When": 2187,
      "amin": 2188,
      "arm": 2189,
      "100": 2190,
      "import": 2191,
      "serv": 2192,
      "til": 2193,
      "fam": 2194,
      "percent": 2195,
      "light": 2196,
      "outh": 2197,
      "types": 2198,
      "both": 2199,
      "tri": 2200,
      "Pro": 2201,
      "ye": 2202,
      "appro": 2203,
      "incre": 2204,
      "40": 2205,
      "Engl": 2206,
      "before": 2207,
      "lay": 2208,
      "mpto": 2209,
      "care": 2210,
      "tissu": 2211,
      "while": 2212,
      "cus": 2213,
      "angu": 2214,
      "flu": 2215,
      "including": 2216,
      "meaning": 2217,
      "ax": 2218,
      "thing": 2219,
      "develop": 2220,
      "word": 2221,
      "por": 2222,
      "itis": 2223,
      "ized": 2224,
      "normal": 2225,
      "start": 2226,
      "ids": 2227,
      "hor": 2228,
      "mi": 2229,
      "foot": 2230,
      "skin": 2231,
      "effect": 2232,
      "free": 2233,
      "ink": 2234,
      "world": 2235,
      "infe": 2236,
      "means": 2237,
      "acc": 2238,
      "heart": 2239,
      "during": 2240,
      "origin": 2241,
      "lim": 2242,
      "ris": 2243,
      "bacter": 2244,
      "cap": 2245,
      "sever": 2246,
      "play": 2247,
      "good": 2248,
      "don": 2249,
      "States": 2250,
      "follow": 2251,
      "ident": 2252,
      "On": 2253,
      "Ar": 2254,
      "based": 2255,
      "square": 2256,
      "cording": 2257,
      "ple": 2258,
      "important": 2259,
      "langu": 2260,
      "let": 2261,
      "ft": 2262,
      "dri": 2263,
      "defin": 2264,
      "wer": 2265,
      "nat": 2266,
      "earn": 2267,
      "jo": 2268,
      "area": 2269,
      "struct": 2270,
      "information": 2271,
      "present": 2272,
      "leg": 2273,
      "ash": 2274,
      "divid": 2275,
      "giv": 2276,
      "every": 2277,
      "17": 2278,
      "ication": 2279,
      "ug": 2280,
      "job": 2281,
      "turn": 2282,
      "la": 2283,
      "life": 2284,
      "xim": 2285,
      "Be": 2286,
      "logy": 2287,
      "mptoms": 2288,
      "ince": 2289,
      "energy": 2290,
      "gn": 2291,
      "exp": 2292,
      "rece": 2293,
      "within": 2294,
      "cover": 2295,
      "lit": 2296,
      "ctor": 2297,
      "plant": 2298,
      "These": 2299,
      "muscle": 2300,
      "Ad": 2301,
      "fil": 2302,
      "Some": 2303,
      "11": 2304,
      "ness": 2305,
      "even": 2306,
      "ately": 2307,
      "mis": 2308,
      "rate": 2309,
      "ane": 2310,
      "Ex": 2311,
      "ton": 2312,
      "anim": 2313,
      "non": 2314,
      "tend": 2315,
      "DNA": 2316,
      "she": 2317,
      "tax": 2318,
      "amount": 2319,
      "ata": 2320,
      "though": 2321,
      "pol": 2322,
      "function": 2323,
      "had": 2324,
      "fat": 2325,
      "refer": 2326,
      "ouse": 2327,
      "period": 2328,
      "__": 2329,
      "head": 2330,
      "Nor": 2331,
      "English": 2332,
      "men": 2333,
      "ital": 2334,
      "right": 2335,
      "pect": 2336,
      "face": 2337,
      "uro": 2338,
      "qual": 2339,
      "show": 2340,
      "gest": 2341,
      "bed": 2342,
      "ank": 2343,
      "bs": 2344,
      "60": 2345,
      "must": 2346,
      "pa": 2347,
      "consider": 2348,
      "ches": 2349,
      "four": 2350,
      "...": 2351,
      "heat": 2352,
      "allow": 2353,
      "being": 2354,
      "sis": 2355,
      "mill": 2356,
      "pow": 2357,
      "lic": 2358,
      "pu": 2359,
      "want": 2360,
      "pur": 2361,
      "ron": 2362,
      "net": 2363,
      "run": 2364,
      "model": 2365,
      "ben": 2366,
      "lect": 2367,
      "ah": 2368,
      "ants": 2369,
      "New": 2370,
      "mater": 2371,
      "ove": 2372,
      "eas": 2373,
      "bin": 2374,
      "Pl": 2375,
      "tle": 2376,
      "vi": 2377,
      "iew": 2378,
      "ucle": 2379,
      "met": 2380,
      "ution": 2381,
      "mone": 2382,
      "list": 2383,
      "beg": 2384,
      "ste": 2385,
      "oil": 2386,
      "mic": 2387,
      "sugar": 2388,
      "rad": 2389,
      "partic": 2390,
      "bor": 2391,
      "500": 2392,
      "anti": 2393,
      "American": 2394,
      "know": 2395,
      "material": 2396,
      "ken": 2397,
      "ased": 2398,
      "species": 2399,
      "pot": 2400,
      "bers": 2401,
      "vide": 2402,
      "provid": 2403,
      "syn": 2404,
      "ded": 2405,
      "until": 2406,
      "US": 2407,
      "best": 2408,
      "tribut": 2409,
      "ake": 2410,
      "sive": 2411,
      "last": 2412,
      "gu": 2413,
      "second": 2414,
      "brain": 2415,
      "-$": 2416,
      "ands": 2417,
      "wide": 2418,
      "respon": 2419,
      "sion": 2420,
      "size": 2421,
      "proper": 2422,
      "stud": 2423,
      "cour": 2424,
      "simp": 2425,
      "iness": 2426,
      "symptoms": 2427,
      "jor": 2428,
      "specific": 2429,
      "direct": 2430,
      "mical": 2431,
      "ency": 2432,
      "appe": 2433,
      "tes": 2434,
      "experi": 2435,
      "total": 2436,
      "bi": 2437,
      "feet": 2438,
      "located": 2439,
      "cut": 2440,
      "curren": 2441,
      "sour": 2442,
      "below": 2443,
      "prof": 2444,
      "meas": 2445,
      "contro": 2446,
      "ired": 2447,
      "those": 2448,
      "grees": 2449,
      "chool": 2450,
      "mes": 2451,
      "bro": 2452,
      "caused": 2453,
      "ator": 2454,
      "language": 2455,
      "baby": 2456,
      "months": 2457,
      "self": 2458,
      "ways": 2459,
      "degrees": 2460,
      "bus": 2461,
      "ason": 2462,
      "depending": 2463,
      "anges": 2464,
      "dist": 2465,
      "room": 2466,
      "ense": 2467,
      "ket": 2468,
      "color": 2469,
      "law": 2470,
      "tissue": 2471,
      "ral": 2472,
      "change": 2473,
      "uc": 2474,
      "Tr": 2475,
      "oth": 2476,
      "character": 2477,
      "So": 2478,
      "emplo": 2479,
      "weight": 2480,
      "pass": 2481,
      "sible": 2482,
      "result": 2483,
      "plants": 2484,
      "ient": 2485,
      "affect": 2486,
      "Most": 2487,
      "eral": 2488,
      "mole": 2489,
      "now": 2490,
      "ord": 2491,
      "aries": 2492,
      "find": 2493,
      "ulation": 2494,
      "ina": 2495,
      "ats": 2496,
      "une": 2497,
      "weeks": 2498,
      "80": 2499,
      "another": 2500,
      "train": 2501,
      "price": 2502,
      "py": 2503,
      "gree": 2504,
      "24": 2505,
      "rest": 2506,
      "itional": 2507,
      "hol": 2508,
      "bit": 2509,
      "ward": 2510,
      "However": 2511,
      "major": 2512,
      "ave": 2513,
      "ption": 2514,
      "proble": 2515,
      "popular": 2516,
      "action": 2517,
      "family": 2518,
      "ather": 2519,
      "led": 2520,
      "ides": 2521,
      "human": 2522,
      "bacteria": 2523,
      "ges": 2524,
      "cook": 2525,
      "At": 2526,
      "ield": 2527,
      "cial": 2528,
      "Ac": 2529,
      "hal": 2530,
      "chemical": 2531,
      "ults": 2532,
      "Cl": 2533,
      "ability": 2534,
      "ict": 2535,
      "ounds": 2536,
      "few": 2537,
      "point": 2538,
      "ref": 2539,
      "could": 2540,
      "imm": 2541,
      "view": 2542,
      "ls": 2543,
      "conne": 2544,
      "grap": 2545,
      "Sy": 2546,
      "nut": 2547,
      "que": 2548,
      "protein": 2549,
      "ains": 2550,
      "mit": 2551,
      "buil": 2552,
      "lead": 2553,
      "ied": 2554,
      "contin": 2555,
      "acid": 2556,
      "ury": 2557,
      "program": 2558,
      "associ": 2559,
      "install": 2560,
      "nucle": 2561,
      "ring": 2562,
      "causes": 2563,
      "ars": 2564,
      "thy": 2565,
      "single": 2566,
      "fish": 2567,
      "forms": 2568,
      "itu": 2569,
      "foods": 2570,
      "company": 2571,
      "higher": 2572,
      "typically": 2573,
      "infection": 2574,
      "least": 2575,
      "without": 2576,
      "comes": 2577,
      "dit": 2578,
      "Me": 2579,
      "ps": 2580,
      "Sh": 2581,
      "equ": 2582,
      "text": 2583,
      "ific": 2584,
      "data": 2585,
      "open": 2586,
      "million": 2587,
      "keep": 2588,
      "oxy": 2589,
      "ross": 2590,
      "several": 2591,
      "white": 2592,
      "cles": 2593,
      "dig": 2594,
      "degree": 2595,
      "Can": 2596,
      "og": 2597,
      "But": 2598,
      "ark": 2599,
      "activ": 2600,
      "cu": 2601,
      "ories": 2602,
      "ines": 2603,
      "above": 2604,
      "vary": 2605,
      "complete": 2606,
      "tech": 2607,
      "ae": 2608,
      "Car": 2609,
      "ney": 2610,
      "dividual": 2611,
      "lor": 2612,
      "rele": 2613,
      "simil": 2614,
      "ither": 2615,
      "words": 2616,
      "ore": 2617,
      "bir": 2618,
      "Med": 2619,
      "school": 2620,
      "class": 2621,
      "Ear": 2622,
      "ization": 2623,
      "Au": 2624,
      "power": 2625,
      "oft": 2626,
      "again": 2627,
      "inal": 2628,
      "full": 2629,
      "sed": 2630,
      "special": 2631,
      "wom": 2632,
      "given": 2633,
      "tom": 2634,
      "sum": 2635,
      "similar": 2636,
      "perform": 2637,
      "ica": 2638,
      "70": 2639,
      "iety": 2640,
      "flow": 2641,
      "eggs": 2642,
      "pressure": 2643,
      "und": 2644,
      "avail": 2645,
      "90": 2646,
      "dia": 2647,
      "generally": 2648,
      "pare": 2649,
      "house": 2650,
      "descri": 2651,
      "enter": 2652,
      "tro": 2653,
      "assi": 2654,
      "hand": 2655,
      "ute": 2656,
      "post": 2657,
      "live": 2658,
      "subst": 2659,
      "require": 2660,
      "oking": 2661,
      "redu": 2662,
      "estim": 2663,
      "medical": 2664,
      "design": 2665,
      "fac": 2666,
      "Le": 2667,
      "ship": 2668,
      "ences": 2669,
      "too": 2670,
      "vit": 2671,
      "cup": 2672,
      "phys": 2673,
      "Or": 2674,
      "individual": 2675,
      "ional": 2676,
      "seed": 2677,
      "certain": 2678,
      "liver": 2679,
      "blic": 2680,
      "bone": 2681,
      "invol": 2682,
      "hard": 2683,
      "ables": 2684,
      "tail": 2685,
      "75": 2686,
      "commonly": 2687,
      "near": 2688,
      "surface": 2689,
      "mach": 2690,
      "lear": 2691,
      "search": 2692,
      "Cal": 2693,
      "due": 2694,
      "dam": 2695,
      "become": 2696,
      "ights": 2697,
      "great": 2698,
      "fee": 2699,
      "abor": 2700,
      "overn": 2701,
      "parts": 2702,
      "gas": 2703,
      "oper": 2704,
      "business": 2705,
      "Com": 2706,
      "Col": 2707,
      "carbon": 2708,
      "ior": 2709,
      "levels": 2710,
      "stre": 2711,
      "available": 2712,
      "either": 2713,
      "arter": 2714,
      "lot": 2715,
      "annual": 2716,
      "male": 2717,
      "say": 2718,
      "Ger": 2719,
      "oid": 2720,
      "ances": 2721,
      "Fr": 2722,
      "sco": 2723,
      "indu": 2724,
      "ses": 2725,
      "uter": 2726,
      "wall": 2727,
      "current": 2728,
      "bal": 2729,
      "ives": 2730,
      "plac": 2731,
      "ask": 2732,
      "sometimes": 2733,
      "atin": 2734,
      "following": 2735,
      "ties": 2736,
      "ential": 2737,
      "meat": 2738,
      "treatment": 2739,
      "eat": 2740,
      "layer": 2741,
      "early": 2742,
      "zy": 2743,
      "ived": 2744,
      "short": 2745,
      "Sal": 2746,
      "Jo": 2747,
      "children": 2748,
      "might": 2749,
      "Of": 2750,
      "poly": 2751,
      "contains": 2752,
      "oven": 2753,
      "itch": 2754,
      "glo": 2755,
      "product": 2756,
      "experience": 2757,
      "itive": 2758,
      "look": 2759,
      "aking": 2760,
      "products": 2761,
      "tu": 2762,
      "cir": 2763,
      "key": 2764,
      "hist": 2765,
      "kid": 2766,
      "grad": 2767,
      "35": 2768,
      "peci": 2769,
      "ible": 2770,
      "left": 2771,
      "approxim": 2772,
      "One": 2773,
      "names": 2774,
      "Is": 2775,
      "week": 2776,
      "particular": 2777,
      "icken": 2778,
      "atory": 2779,
      "ling": 2780,
      "da": 2781,
      "war": 2782,
      "according": 2783,
      "Your": 2784,
      "cient": 2785,
      "cum": 2786,
      "ground": 2787,
      "takes": 2788,
      "hold": 2789,
      "mary": 2790,
      "hi": 2791,
      "soft": 2792,
      "ones": 2793,
      "natural": 2794,
      "ulti": 2795,
      "pen": 2796,
      "ER": 2797,
      "expect": 2798,
      "produce": 2799,
      "considered": 2800,
      "since": 2801,
      "general": 2802,
      "sequ": 2803,
      "mid": 2804,
      "rown": 2805,
      "Pr": 2806,
      "hydro": 2807,
      "atic": 2808,
      "base": 2809,
      "mg": 2810,
      "measure": 2811,
      "little": 2812,
      "green": 2813,
      "report": 2814,
      "thern": 2815,
      "muscles": 2816,
      "appl": 2817,
      "Euro": 2818,
      "yl": 2819,
      "aves": 2820,
      "infl": 2821,
      "oxygen": 2822,
      "hot": 2823,
      "related": 2824,
      "gether": 2825,
      "All": 2826,
      "Ab": 2827,
      "ade": 2828,
      "project": 2829,
      "sent": 2830,
      "conditions": 2831,
      "bar": 2832,
      "structure": 2833,
      "still": 2834,
      "field": 2835,
      "charge": 2836,
      "half": 2837,
      "ength": 2838,
      "largest": 2839,
      "atch": 2840,
      "osis": 2841,
      "location": 2842,
      "cept": 2843,
      "Gr": 2844,
      "standard": 2845,
      "big": 2846,
      "loss": 2847,
      "recor": 2848,
      "termin": 2849,
      "Wor": 2850,
      "Rep": 2851,
      "reach": 2852,
      "aning": 2853,
      "intern": 2854,
      "fied": 2855,
      "plas": 2856,
      "dry": 2857,
      "With": 2858,
      "produced": 2859,
      "commend": 2860,
      "five": 2861,
      "roid": 2862,
      "cks": 2863,
      "contract": 2864,
      "service": 2865,
      "ared": 2866,
      "compos": 2867,
      "feat": 2868,
      "lun": 2869,
      "Ans": 2870,
      "bot": 2871,
      "ivers": 2872,
      "diet": 2873,
      "membr": 2874,
      "active": 2875,
      "pair": 2876,
      "atom": 2877,
      "ished": 2878,
      "IN": 2879,
      "uco": 2880,
      "yel": 2881,
      "benef": 2882,
      "And": 2883,
      "valu": 2884,
      "connect": 2885,
      "Mar": 2886,
      "provide": 2887,
      "writ": 2888,
      "occurs": 2889,
      "thod": 2890,
      "wood": 2891,
      "23": 2892,
      "approximately": 2893,
      "mb": 2894,
      "variety": 2895,
      "together": 2896,
      "tor": 2897,
      "Li": 2898,
      "states": 2899,
      "position": 2900,
      "Comp": 2901,
      "along": 2902,
      "wind": 2903,
      "check": 2904,
      "offic": 2905,
      "living": 2906,
      "probab": 2907,
      "represent": 2908,
      "aster": 2909,
      "ize": 2910,
      "areas": 2911,
      "mph": 2912,
      "ech": 2913,
      "country": 2914,
      "vari": 2915,
      "isms": 2916,
      "longer": 2917,
      "22": 2918,
      "makes": 2919,
      "Ro": 2920,
      "recommend": 2921,
      "medic": 2922,
      "abs": 2923,
      "45": 2924,
      "animals": 2925,
      "born": 2926,
      "ints": 2927,
      ".,": 2928,
      "profess": 2929,
      "ier": 2930,
      "kind": 2931,
      "aly": 2932,
      "Gree": 2933,
      "vice": 2934,
      "associated": 2935,
      "sha": 2936,
      "ju": 2937,
      "mber": 2938,
      "Earth": 2939,
      "real": 2940,
      "minim": 2941,
      "lies": 2942,
      "hair": 2943,
      "cancer": 2944,
      "case": 2945,
      "stri": 2946,
      "oto": 2947,
      "credit": 2948,
      "fall": 2949,
      "source": 2950,
      "Europe": 2951,
      "multi": 2952,
      "region": 2953,
      "eye": 2954,
      "nerve": 2955,
      "dec": 2956,
      "doctor": 2957,
      "cing": 2958,
      "ik": 2959,
      "Pe": 2960,
      "veget": 2961,
      "miles": 2962,
      "pecially": 2963,
      "income": 2964,
      "AT": 2965,
      "inv": 2966,
      "length": 2967,
      "especially": 2968,
      "value": 2969,
      "give": 2970,
      "combin": 2971,
      "increase": 2972,
      "wr": 2973,
      "reat": 2974,
      "trad": 2975,
      "inches": 2976,
      "ru": 2977,
      "Do": 2978,
      "sun": 2979,
      "control": 2980,
      "lands": 2981,
      "Per": 2982,
      "cases": 2983,
      "oles": 2984,
      "fru": 2985,
      "hydr": 2986,
      "paid": 2987,
      "city": 2988,
      "pper": 2989,
      "az": 2990,
      "govern": 2991,
      "here": 2992,
      "formed": 2993,
      "various": 2994,
      "smo": 2995,
      "icle": 2996,
      "lie": 2997,
      "surance": 2998,
      "istics": 2999,
      "production": 3000,
      "ients": 3001,
      "step": 3002,
      "ago": 3003,
      "thor": 3004,
      "making": 3005,
      "chicken": 3006,
      "whe": 3007,
      "inflam": 3008,
      "Ph": 3009,
      "nic": 3010,
      "21": 3011,
      "Af": 3012,
      "cold": 3013,
      "includes": 3014,
      "ucose": 3015,
      "cular": 3016,
      "Answer": 3017,
      "enn": 3018,
      "North": 3019,
      "virus": 3020,
      "stral": 3021,
      "code": 3022,
      "book": 3023,
      "round": 3024,
      "basic": 3025,
      "South": 3026,
      "viron": 3027,
      "appear": 3028,
      "sens": 3029,
      "What": 3030,
      "unit": 3031,
      "highest": 3032,
      "definition": 3033,
      "ana": 3034,
      "begin": 3035,
      "ush": 3036,
      "auto": 3037,
      "Afr": 3038,
      "women": 3039,
      "ster": 3040,
      "That": 3041,
      "ai": 3042,
      "aste": 3043,
      "inc": 3044,
      "cat": 3045,
      "den": 3046,
      "better": 3047,
      "commun": 3048,
      "ley": 3049,
      "logical": 3050,
      "training": 3051,
      "Canad": 3052,
      "separ": 3053,
      "199": 3054,
      "median": 3055,
      "Defin": 3056,
      "rain": 3057,
      "estion": 3058,
      "graph": 3059,
      "depends": 3060,
      "ene": 3061,
      "2015": 3062,
      "ula": 3063,
      "works": 3064,
      "six": 3065,
      "gi": 3066,
      "igure": 3067,
      "therap": 3068,
      "According": 3069,
      "RA": 3070,
      "came": 3071,
      "later": 3072,
      "table": 3073,
      "sw": 3074,
      "domin": 3075,
      "grams": 3076,
      "account": 3077,
      "stit": 3078,
      "safe": 3079,
      "Austral": 3080,
      "path": 3081,
      "employ": 3082,
      "required": 3083,
      "28": 3084,
      "done": 3085,
      "gir": 3086,
      "method": 3087,
      "vision": 3088,
      "ending": 3089,
      "late": 3090,
      "pract": 3091,
      "remain": 3092,
      "lex": 3093,
      "ST": 3094,
      "date": 3095,
      "immune": 3096,
      "return": 3097,
      "Definition": 3098,
      "Many": 3099,
      "aim": 3100,
      "others": 3101,
      "milk": 3102,
      "roast": 3103,
      "growth": 3104,
      "dle": 3105,
      "local": 3106,
      "soil": 3107,
      "prevent": 3108,
      "flo": 3109,
      "break": 3110,
      "risk": 3111,
      "animal": 3112,
      "65": 3113,
      "problems": 3114,
      "Not": 3115,
      "ont": 3116,
      "genet": 3117,
      "systems": 3118,
      "frequ": 3119,
      "ister": 3120,
      "however": 3121,
      "ull": 3122,
      "cult": 3123,
      "did": 3124,
      "organisms": 3125,
      "ians": 3126,
      "nia": 3127,
      "ood": 3128,
      "sia": 3129,
      "bac": 3130,
      "mag": 3131,
      "Res": 3132,
      "enzy": 3133,
      "board": 3134,
      "course": 3135,
      "ify": 3136,
      "RNA": 3137,
      "2014": 3138,
      "aut": 3139,
      "istr": 3140,
      "rock": 3141,
      "America": 3142,
      "possible": 3143,
      "vacc": 3144,
      "remo": 3145,
      "card": 3146,
      "ental": 3147,
      "osph": 3148,
      "ped": 3149,
      "close": 3150,
      "ply": 3151,
      "star": 3152,
      "ball": 3153,
      "fast": 3154,
      "egg": 3155,
      "glucose": 3156,
      "rare": 3157,
      "salt": 3158,
      "paren": 3159,
      "chan": 3160,
      "No": 3161,
      "tell": 3162,
      "effects": 3163,
      "synthe": 3164,
      "acts": 3165,
      "intest": 3166,
      "Pre": 3167,
      "environ": 3168,
      "____": 3169,
      "study": 3170,
      "urine": 3171,
      "ext": 3172,
      "zer": 3173,
      "against": 3174,
      "Par": 3175,
      "space": 3176,
      "ison": 3177,
      "quality": 3178,
      "Ser": 3179,
      "150": 3180,
      "By": 3181,
      "ff": 3182,
      "colle": 3183,
      "iversity": 3184,
      "classi": 3185,
      "300": 3186,
      "ensive": 3187,
      "proteins": 3188,
      "mark": 3189,
      "Other": 3190,
      "support": 3191,
      "ib": 3192,
      "ancy": 3193,
      "tive": 3194,
      "likely": 3195,
      "minimum": 3196,
      "ged": 3197,
      "feed": 3198,
      "psy": 3199,
      "next": 3200,
      "fill": 3201,
      "simple": 3202,
      "complex": 3203,
      "covered": 3204,
      "public": 3205,
      "hip": 3206,
      "ale": 3207,
      "neur": 3208,
      "defined": 3209,
      "central": 3210,
      "amples": 3211,
      "calcul": 3212,
      "aring": 3213,
      "micro": 3214,
      "patients": 3215,
      "nerv": 3216,
      "enough": 3217,
      "offer": 3218,
      "dom": 3219,
      "building": 3220,
      "educ": 3221,
      "far": 3222,
      "ends": 3223,
      "membrane": 3224,
      "Greek": 3225,
      "results": 3226,
      "yellow": 3227,
      "cip": 3228,
      "sea": 3229,
      "having": 3230,
      "oes": 3231,
      "tries": 3232,
      "regular": 3233,
      "tar": 3234,
      "infect": 3235,
      "disorder": 3236,
      "rench": 3237,
      "ots": 3238,
      "bur": 3239,
      "useful": 3240,
      "gene": 3241,
      "services": 3242,
      "feel": 3243,
      "whole": 3244,
      "eth": 3245,
      "diseases": 3246,
      "cules": 3247,
      "After": 3248,
      "cium": 3249,
      "salaries": 3250,
      "insurance": 3251,
      "ams": 3252,
      "said": 3253,
      "money": 3254,
      "tree": 3255,
      "changes": 3256,
      "While": 3257,
      "stone": 3258,
      "resh": 3259,
      "hormone": 3260,
      "scal": 3261,
      "population": 3262,
      "thyroid": 3263,
      "dog": 3264,
      "addition": 3265,
      "indic": 3266,
      "ently": 3267,
      "materials": 3268,
      "tru": 3269,
      "cean": 3270,
      "CO": 3271,
      "factors": 3272,
      "infections": 3273,
      "bio": 3274,
      "aged": 3275,
      "referred": 3276,
      "government": 3277,
      "noun": 3278,
      "Ty": 3279,
      "alk": 3280,
      "hn": 3281,
      "molecules": 3282,
      "reco": 3283,
      "member": 3284,
      "healthy": 3285,
      "click": 3286,
      "ler": 3287,
      "things": 3288,
      "lines": 3289,
      "count": 3290,
      "away": 3291,
      "daily": 3292,
      "ww": 3293,
      "thin": 3294,
      "ension": 3295,
      "thir": 3296,
      "answer": 3297,
      "vessel": 3298,
      "Act": 3299,
      "bill": 3300,
      "personal": 3301,
      "respir": 3302,
      "May": 3303,
      "mor": 3304,
      "research": 3305,
      "stu": 3306,
      "pregn": 3307,
      "mbol": 3308,
      "brown": 3309,
      "role": 3310,
      "docum": 3311,
      "development": 3312,
      "super": 3313,
      "Dep": 3314,
      "needs": 3315,
      "learn": 3316,
      "ran": 3317,
      "tt": 3318,
      "anywhere": 3319,
      "ready": 3320,
      "diag": 3321,
      "movement": 3322,
      "ware": 3323,
      "refr": 3324,
      "working": 3325,
      "outs": 3326,
      "load": 3327,
      "electric": 3328,
      "phone": 3329,
      "travel": 3330,
      "Ge": 3331,
      "buy": 3332,
      "fees": 3333,
      "engine": 3334,
      "page": 3335,
      "Man": 3336,
      "labor": 3337,
      "chro": 3338,
      "crete": 3339,
      "km": 3340,
      "youn": 3341,
      "avor": 3342,
      "vil": 3343,
      "suc": 3344,
      "cohol": 3345,
      "spread": 3346,
      "strong": 3347,
      "stay": 3348,
      "istic": 3349,
      "photo": 3350,
      "damage": 3351,
      "once": 3352,
      "stat": 3353,
      "wn": 3354,
      "phy": 3355,
      "Cost": 3356,
      "pet": 3357,
      "ateg": 3358,
      "vitamin": 3359,
      "mouth": 3360,
      "uni": 3361,
      "computer": 3362,
      "Add": 3363,
      "file": 3364,
      "mount": 3365,
      "medium": 3366,
      "Mo": 3367,
      "environment": 3368,
      "inside": 3369,
      "season": 3370,
      "actually": 3371,
      "sex": 3372,
      "27": 3373,
      "lied": 3374,
      "happ": 3375,
      "moder": 3376,
      "Bo": 3377,
      "From": 3378,
      "provides": 3379,
      "conver": 3380,
      "primary": 3381,
      "mation": 3382,
      "van": 3383,
      "Dis": 3384,
      "dol": 3385,
      "going": 3386,
      "ames": 3387,
      "liqu": 3388,
      "nervous": 3389,
      "maxim": 3390,
      "Latin": 3391,
      "black": 3392,
      "protect": 3393,
      "ites": 3394,
      "400": 3395,
      "Ste": 3396,
      "pie": 3397,
      "among": 3398,
      "Ap": 3399,
      "bow": 3400,
      "benefits": 3401,
      "organs": 3402,
      "humans": 3403,
      "ifor": 3404,
      "My": 3405,
      "acy": 3406,
      "century": 3407,
      "stomach": 3408,
      "2013": 3409,
      "always": 3410,
      "tin": 3411,
      "compon": 3412,
      "sil": 3413,
      "necess": 3414,
      "vious": 3415,
      "yle": 3416,
      "agement": 3417,
      "carri": 3418,
      "lu": 3419,
      "26": 3420,
      "consist": 3421,
      "ifornia": 3422,
      "fri": 3423,
      "neg": 3424,
      "See": 3425,
      "fed": 3426,
      "otic": 3427,
      "consists": 3428,
      "ules": 3429,
      "something": 3430,
      "refers": 3431,
      "dish": 3432,
      "upper": 3433,
      "earned": 3434,
      "uary": 3435,
      "claim": 3436,
      "oxide": 3437,
      "gery": 3438,
      "AC": 3439,
      "def": 3440,
      "contribut": 3441,
      "fiber": 3442,
      "whether": 3443,
      "AR": 3444,
      "physical": 3445,
      "29": 3446,
      "consu": 3447,
      "Here": 3448,
      "site": 3449,
      "idge": 3450,
      "countries": 3451,
      "fluid": 3452,
      "ey": 3453,
      "think": 3454,
      "duct": 3455,
      "Each": 3456,
      "ranges": 3457,
      "thro": 3458,
      "sell": 3459,
      "exist": 3460,
      "Fe": 3461,
      "inj": 3462,
      "throughout": 3463,
      "mix": 3464,
      "actions": 3465,
      "gland": 3466,
      "Po": 3467,
      "purch": 3468,
      "birth": 3469,
      "refrig": 3470,
      "sl": 3471,
      "ork": 3472,
      "share": 3473,
      "fully": 3474,
      "symbol": 3475,
      "calories": 3476,
      "lymph": 3477,
      "typical": 3478,
      "cription": 3479,
      "otes": 3480,
      "uk": 3481,
      "iction": 3482,
      "difference": 3483,
      "original": 3484,
      "wage": 3485,
      "na": 3486,
      "California": 3487,
      "pack": 3488,
      "cooking": 3489,
      "French": 3490,
      "ray": 3491,
      "tions": 3492,
      "clear": 3493,
      "chromo": 3494,
      "cool": 3495,
      "compan": 3496,
      "center": 3497,
      "history": 3498,
      "deep": 3499,
      "ufact": 3500,
      "ified": 3501,
      "tissues": 3502,
      "rich": 3503,
      "AN": 3504,
      "II": 3505,
      "spo": 3506,
      "shows": 3507,
      "derived": 3508,
      "intro": 3509,
      "genetic": 3510,
      "ell": 3511,
      "Best": 3512,
      "ched": 3513,
      "needed": 3514,
      "ON": 3515,
      "employe": 3516,
      "determin": 3517,
      "Although": 3518,
      "activity": 3519,
      "36": 3520,
      "Brit": 3521,
      "Canada": 3522,
      "entire": 3523,
      "terms": 3524,
      "helps": 3525,
      "members": 3526,
      "Bl": 3527,
      "alg": 3528,
      "meter": 3529,
      "electr": 3530,
      "John": 3531,
      "oks": 3532,
      "abol": 3533,
      "Che": 3534,
      "ology": 3535,
      "fix": 3536,
      "relative": 3537,
      "Meaning": 3538,
      "cere": 3539,
      "uel": 3540,
      "kidney": 3541,
      "Coun": 3542,
      "bes": 3543,
      "distribut": 3544,
      "48": 3545,
      "Su": 3546,
      "rough": 3547,
      "2012": 3548,
      "joint": 3549,
      "etc": 3550,
      "99": 3551,
      "alcohol": 3552,
      "cooked": 3553,
      "dose": 3554,
      "swe": 3555,
      "atter": 3556,
      "cycle": 3557,
      "Des": 3558,
      "198": 3559,
      "hab": 3560,
      "stry": 3561,
      "contact": 3562,
      "additional": 3563,
      "mass": 3564,
      "quick": 3565,
      "apply": 3566,
      "Cor": 3567,
      "phosph": 3568,
      "object": 3569,
      "link": 3570,
      "ert": 3571,
      "fur": 3572,
      "version": 3573,
      "drive": 3574,
      "ban": 3575,
      "estern": 3576,
      "legal": 3577,
      "tw": 3578,
      "receive": 3579,
      "ially": 3580,
      "ov": 3581,
      "west": 3582,
      "tox": 3583,
      "introdu": 3584,
      "functions": 3585,
      "cto": 3586,
      "severe": 3587,
      "fresh": 3588,
      "him": 3589,
      "ond": 3590,
      "absor": 3591,
      "maximum": 3592,
      "War": 3593,
      "past": 3594,
      "sph": 3595,
      "itary": 3596,
      "endo": 3597,
      "mally": 3598,
      "sou": 3599,
      "iter": 3600,
      "problem": 3601,
      "nur": 3602,
      "lip": 3603,
      "interest": 3604,
      "create": 3605,
      "select": 3606,
      "RE": 3607,
      "south": 3608,
      "property": 3609,
      "tur": 3610,
      "verse": 3611,
      "elements": 3612,
      "market": 3613,
      "Australia": 3614,
      "national": 3615,
      "expres": 3616,
      "impro": 3617,
      "draw": 3618,
      "signific": 3619,
      "ills": 3620,
      "olester": 3621,
      "larger": 3622,
      "gold": 3623,
      "ino": 3624,
      "pron": 3625,
      "burn": 3626,
      "rates": 3627,
      "almost": 3628,
      "reason": 3629,
      "ilities": 3630,
      "boil": 3631,
      "seeds": 3632,
      "German": 3633,
      "sequence": 3634,
      "Fir": 3635,
      "astic": 3636,
      "stim": 3637,
      "Average": 3638,
      "leaves": 3639,
      "aller": 3640,
      "calcium": 3641,
      "breed": 3642,
      "internal": 3643,
      "created": 3644,
      "wa": 3645,
      "although": 3646,
      "mail": 3647,
      "carry": 3648,
      "mission": 3649,
      "ires": 3650,
      "anal": 3651,
      "medi": 3652,
      "directly": 3653,
      "ni": 3654,
      "death": 3655,
      "continu": 3656,
      "Mon": 3657,
      "taken": 3658,
      "olesterol": 3659,
      "TI": 3660,
      "female": 3661,
      "ured": 3662,
      "north": 3663,
      "volcan": 3664,
      "roll": 3665,
      "why": 3666,
      "carbo": 3667,
      "thritis": 3668,
      "input": 3669,
      "earth": 3670,
      "warm": 3671,
      "access": 3672,
      "taking": 3673,
      "influ": 3674,
      "varies": 3675,
      "SA": 3676,
      "seen": 3677,
      "Hy": 3678,
      "bel": 3679,
      "ham": 3680,
      "lungs": 3681,
      "won": 3682,
      "itself": 3683,
      "abl": 3684,
      "ican": 3685,
      "Indi": 3686,
      "manufact": 3687,
      "relation": 3688,
      "night": 3689,
      "vessels": 3690,
      "bran": 3691,
      "added": 3692,
      "inary": 3693,
      "asing": 3694,
      "pose": 3695,
      "composed": 3696,
      "replace": 3697,
      "kil": 3698,
      "across": 3699,
      "cience": 3700,
      "output": 3701,
      "ows": 3702,
      "blue": 3703,
      "AD": 3704,
      "temperatures": 3705,
      "sat": 3706,
      "iting": 3707,
      "acids": 3708,
      "suf": 3709,
      "posed": 3710,
      "Gener": 3711,
      "town": 3712,
      "pounds": 3713,
      "erals": 3714,
      "doesn": 3715,
      "dy": 3716,
      "slow": 3717,
      "ida": 3718,
      "oral": 3719,
      "motor": 3720,
      "ronic": 3721,
      "industry": 3722,
      "ging": 3723,
      "height": 3724,
      "igr": 3725,
      "ems": 3726,
      "lightly": 3727,
      "maintain": 3728,
      "ports": 3729,
      "fever": 3730,
      "corpor": 3731,
      "struction": 3732,
      "nar": 3733,
      "adder": 3734,
      "State": 3735,
      "55": 3736,
      "aur": 3737,
      "fication": 3738,
      "):": 3739,
      "Cent": 3740,
      "vate": 3741,
      "series": 3742,
      "secre": 3743,
      "cannot": 3744,
      "genes": 3745,
      "choose": 3746,
      "ised": 3747,
      "social": 3748,
      "groups": 3749,
      "acks": 3750,
      "someone": 3751,
      "expensive": 3752,
      "detail": 3753,
      "assist": 3754,
      "shape": 3755,
      "mones": 3756,
      "certi": 3757,
      "har": 3758,
      "cholesterol": 3759,
      "surgery": 3760,
      "smaller": 3761,
      "Africa": 3762,
      "33": 3763,
      "First": 3764,
      "icy": 3765,
      "resident": 3766,
      "Inter": 3767,
      "shap": 3768,
      "University": 3769,
      "Ju": 3770,
      "education": 3771,
      "erator": 3772,
      "store": 3773,
      "York": 3774,
      "drug": 3775,
      "map": 3776,
      "World": 3777,
      "Place": 3778,
      "therapy": 3779,
      "ume": 3780,
      "named": 3781,
      "tun": 3782,
      "bodies": 3783,
      "attach": 3784,
      "bound": 3785,
      "Also": 3786,
      "dollar": 3787,
      "ico": 3788,
      "bul": 3789,
      "easy": 3790,
      "features": 3791,
      "47": 3792,
      "ysis": 3793,
      "termine": 3794,
      "significant": 3795,
      "].": 3796,
      "prices": 3797,
      "network": 3798,
      "liquid": 3799,
      "aks": 3800,
      "effective": 3801,
      "zed": 3802,
      "beans": 3803,
      "third": 3804,
      "lla": 3805,
      "regul": 3806,
      "outside": 3807,
      "EN": 3808,
      "conom": 3809,
      "init": 3810,
      "glands": 3811,
      "nutri": 3812,
      "mm": 3813,
      "pul": 3814,
      "metal": 3815,
      "inch": 3816,
      "estimate": 3817,
      "patient": 3818,
      "inflammation": 3819,
      "ev": 3820,
      "cule": 3821,
      "proced": 3822,
      "37": 3823,
      "concent": 3824,
      "wel": 3825,
      "lat": 3826,
      "tric": 3827,
      "More": 3828,
      "National": 3829,
      "flower": 3830,
      "really": 3831,
      "adults": 3832,
      "butter": 3833,
      "recogn": 3834,
      "ping": 3835,
      "Click": 3836,
      "sod": 3837,
      "extend": 3838,
      "anc": 3839,
      "increased": 3840,
      "simply": 3841,
      "sources": 3842,
      "Over": 3843,
      "reaction": 3844,
      "spect": 3845,
      "portion": 3846,
      "orders": 3847,
      "Qu": 3848,
      "sn": 3849,
      "ouble": 3850,
      "ili": 3851,
      "built": 3852,
      "betes": 3853,
      "32": 3854,
      "asts": 3855,
      "plate": 3856,
      "paper": 3857,
      "38": 3858,
      "section": 3859,
      "conf": 3860,
      "molecule": 3861,
      "Air": 3862,
      "Gu": 3863,
      "motion": 3864,
      "establ": 3865,
      "gradu": 3866,
      "arthritis": 3867,
      "forest": 3868,
      "force": 3869,
      "carbohydr": 3870,
      "gall": 3871,
      "const": 3872,
      "iment": 3873,
      "somes": 3874,
      "jun": 3875,
      "sug": 3876,
      "starting": 3877,
      "event": 3878,
      "correct": 3879,
      "door": 3880,
      "box": 3881,
      "element": 3882,
      "ening": 3883,
      "havi": 3884,
      "students": 3885,
      "transport": 3886,
      "transfer": 3887,
      "categ": 3888,
      "iron": 3889,
      "fici": 3890,
      "colon": 3891,
      "middle": 3892,
      "usion": 3893,
      "build": 3894,
      "wed": 3895,
      "dete": 3896,
      "chlor": 3897,
      "vegetables": 3898,
      "Trans": 3899,
      "ets": 3900,
      "pi": 3901,
      "resid": 3902,
      "umb": 3903,
      "Br": 3904,
      "Di": 3905,
      "models": 3906,
      "mas": 3907,
      "ocy": 3908,
      "necessary": 3909,
      "erc": 3910,
      "remove": 3911,
      "clean": 3912,
      "diffic": 3913,
      "invest": 3914,
      "Old": 3915,
      "today": 3916,
      "pepper": 3917,
      "radi": 3918,
      "reduce": 3919,
      "amine": 3920,
      "iss": 3921,
      "pork": 3922,
      "recent": 3923,
      "score": 3924,
      "success": 3925,
      "allows": 3926,
      "heav": 3927,
      "determine": 3928,
      "speed": 3929,
      "cav": 3930,
      "easily": 3931,
      "nucleus": 3932,
      "ery": 3933,
      "bones": 3934,
      "developed": 3935,
      "game": 3936,
      "ounts": 3937,
      "scre": 3938,
      "cry": 3939,
      "King": 3940,
      "mel": 3941,
      "probably": 3942,
      "ugs": 3943,
      "veh": 3944,
      "cit": 3945,
      "India": 3946,
      "250": 3947,
      "2011": 3948,
      "block": 3949,
      "clim": 3950,
      "gives": 3951,
      "subject": 3952,
      "floor": 3953,
      "stream": 3954,
      "teach": 3955,
      "coming": 3956,
      "minerals": 3957,
      "responsible": 3958,
      "tests": 3959,
      "counter": 3960,
      "matter": 3961,
      "document": 3962,
      "negative": 3963,
      "neuro": 3964,
      "understand": 3965,
      "front": 3966,
      "System": 3967,
      "brand": 3968,
      "Reg": 3969,
      "Dr": 3970,
      "ote": 3971,
      "clin": 3972,
      "serious": 3973,
      "anged": 3974,
      "enses": 3975,
      "application": 3976,
      "ource": 3977,
      "nose": 3978,
      "bottom": 3979,
      "rhe": 3980,
      "sle": 3981,
      "cord": 3982,
      "question": 3983,
      "dogs": 3984,
      "spir": 3985,
      "pred": 3986,
      "600": 3987,
      "lig": 3988,
      "anging": 3989,
      "organic": 3990,
      "hormones": 3991,
      "Wind": 3992,
      "ention": 3993,
      "amounts": 3994,
      "adult": 3995,
      "normally": 3996,
      "era": 3997,
      "PA": 3998,
      "belie": 3999,
      "behavi": 4000,
      "contr": 4001,
      "companies": 4002,
      "Go": 4003,
      "anes": 4004,
      "drome": 4005,
      "ford": 4006,
      "196": 4007,
      "800": 4008,
      "thick": 4009,
      "erous": 4010,
      "39": 4011,
      "shown": 4012,
      "upon": 4013,
      "els": 4014,
      "2010": 4015,
      "chain": 4016,
      "admin": 4017,
      "professional": 4018,
      "young": 4019,
      "alle": 4020,
      "mechan": 4021,
      "trees": 4022,
      "Use": 4023,
      "econom": 4024,
      "adv": 4025,
      "metabol": 4026,
      "mess": 4027,
      "grass": 4028,
      "ival": 4029,
      "dependent": 4030,
      "Since": 4031,
      "pical": 4032,
      "rather": 4033,
      "recommended": 4034,
      "Min": 4035,
      "option": 4036,
      "($": 4037,
      "rogen": 4038,
      "deal": 4039,
      "nel": 4040,
      "Jan": 4041,
      "Mic": 4042,
      "olog": 4043,
      "became": 4044,
      "odes": 4045,
      "growing": 4046,
      "listed": 4047,
      "She": 4048,
      "units": 4049,
      "cas": 4050,
      "pes": 4051,
      "coll": 4052,
      "visit": 4053,
      "Because": 4054,
      "altern": 4055,
      "fruit": 4056,
      "gain": 4057,
      "ctors": 4058,
      "extre": 4059,
      "iat": 4060,
      "scient": 4061,
      "substance": 4062,
      "collect": 4063,
      "dest": 4064,
      "hosp": 4065,
      "jobs": 4066,
      "essential": 4067,
      "ended": 4068,
      "transmit": 4069,
      "AL": 4070,
      "inste": 4071,
      "Salary": 4072,
      "vey": 4073,
      "pronoun": 4074,
      "tit": 4075,
      "medicine": 4076,
      "vaccine": 4077,
      "Get": 4078,
      "ision": 4079,
      "ender": 4080,
      "author": 4081,
      "pregnancy": 4082,
      "bile": 4083,
      "rat": 4084,
      "tex": 4085,
      "speech": 4086,
      "cheese": 4087,
      "oxid": 4088,
      "situ": 4089,
      "vo": 4090,
      "meters": 4091,
      "drugs": 4092,
      "management": 4093,
      "PC": 4094,
      "lant": 4095,
      "sess": 4096,
      "rocks": 4097,
      "device": 4098,
      "bladder": 4099,
      "positive": 4100,
      "stop": 4101,
      "Sco": 4102,
      "nit": 4103,
      "stor": 4104,
      "ficient": 4105,
      "tuition": 4106,
      "Span": 4107,
      "structures": 4108,
      "released": 4109,
      "aver": 4110,
      "pha": 4111,
      "diabetes": 4112,
      "online": 4113,
      "Pol": 4114,
      "bag": 4115,
      "fit": 4116,
      "cardi": 4117,
      "widely": 4118,
      "People": 4119,
      "ID": 4120,
      "highly": 4121,
      "layers": 4122,
      "batter": 4123,
      "concentr": 4124,
      "expl": 4125,
      "stimul": 4126,
      "Sun": 4127,
      "gly": 4128,
      "concrete": 4129,
      "instead": 4130,
      "pound": 4131,
      "copy": 4132,
      "recept": 4133,
      "sense": 4134,
      "Mus": 4135,
      "ination": 4136,
      "weather": 4137,
      "eyes": 4138,
      "never": 4139,
      "excess": 4140,
      "----": 4141,
      "Its": 4142,
      "tool": 4143,
      "organism": 4144,
      "ker": 4145,
      "ators": 4146,
      "coc": 4147,
      "webs": 4148,
      "spinal": 4149,
      "kness": 4150,
      "music": 4151,
      "refrigerator": 4152,
      "gum": 4153,
      "meet": 4154,
      "neck": 4155,
      "multiple": 4156,
      "stic": 4157,
      "illness": 4158,
      "cyto": 4159,
      "nee": 4160,
      "phen": 4161,
      "written": 4162,
      "bad": 4163,
      "already": 4164,
      "languages": 4165,
      "Report": 4166,
      "aps": 4167,
      "aging": 4168,
      "true": 4169,
      "applic": 4170,
      "SE": 4171,
      "fro": 4172,
      "taste": 4173,
      "via": 4174,
      "sem": 4175,
      "office": 4176,
      "custom": 4177,
      "Tex": 4178,
      "marily": 4179,
      "34": 4180,
      "ought": 4181,
      "phr": 4182,
      "placed": 4183,
      "decre": 4184,
      "sib": 4185,
      "joints": 4186,
      "males": 4187,
      "China": 4188,
      "Blo": 4189,
      "iver": 4190,
      "slightly": 4191,
      "installation": 4192,
      "Mount": 4193,
      "mixt": 4194,
      "apan": 4195,
      "phil": 4196,
      "aving": 4197,
      "curity": 4198,
      "mut": 4199,
      "invent": 4200,
      "reported": 4201,
      "traditional": 4202,
      "cross": 4203,
      "redi": 4204,
      "urally": 4205,
      "finan": 4206,
      "numbers": 4207,
      "processes": 4208,
      "High": 4209,
      "ky": 4210,
      "heal": 4211,
      "neys": 4212,
      "Har": 4213,
      "rap": 4214,
      "sul": 4215,
      "idea": 4216,
      "hyper": 4217,
      "capital": 4218,
      "istered": 4219,
      "TH": 4220,
      "fuel": 4221,
      "prefer": 4222,
      "Our": 4223,
      "ingredi": 4224,
      "Spanish": 4225,
      "Figure": 4226,
      "cand": 4227,
      "divided": 4228,
      "older": 4229,
      "fire": 4230,
      "edia": 4231,
      "Once": 4232,
      "lets": 4233,
      "ards": 4234,
      "previous": 4235,
      "extra": 4236,
      "worth": 4237,
      "requires": 4238,
      "cm": 4239,
      "seven": 4240,
      "college": 4241,
      "coast": 4242,
      "compared": 4243,
      "hypo": 4244,
      "lowest": 4245,
      "values": 4246,
      "95": 4247,
      "moving": 4248,
      "primarily": 4249,
      "pattern": 4250,
      "solution": 4251,
      "individuals": 4252,
      "occup": 4253,
      "nation": 4254,
      "inct": 4255,
      "radio": 4256,
      "Cong": 4257,
      "mother": 4258,
      "dies": 4259,
      "stitution": 4260,
      "culture": 4261,
      "exerc": 4262,
      "Sur": 4263,
      "inner": 4264,
      "tender": 4265,
      "modern": 4266,
      "mam": 4267,
      "ram": 4268,
      "sau": 4269,
      "distance": 4270,
      "dark": 4271,
      "weigh": 4272,
      "Texas": 4273,
      "rise": 4274,
      "causing": 4275,
      "outer": 4276,
      "response": 4277,
      "designed": 4278,
      "46": 4279,
      "Ber": 4280,
      "rot": 4281,
      "scale": 4282,
      "West": 4283,
      "expected": 4284,
      "Mex": 4285,
      "mand": 4286,
      "syndrome": 4287,
      "//": 4288,
      "Asia": 4289,
      "mostly": 4290,
      "exact": 4291,
      "BC": 4292,
      "examples": 4293,
      "ony": 4294,
      "mosph": 4295,
      "separate": 4296,
      "inte": 4297,
      "limit": 4298,
      "sac": 4299,
      "akes": 4300,
      "Cel": 4301,
      "equal": 4302,
      "197": 4303,
      "involved": 4304,
      "Japan": 4305,
      "Health": 4306,
      "July": 4307,
      "road": 4308,
      "dioxide": 4309,
      "flat": 4310,
      "RI": 4311,
      "sus": 4312,
      "former": 4313,
      "disorders": 4314,
      "hourly": 4315,
      "rup": 4316,
      "ava": 4317,
      "istration": 4318,
      "Wil": 4319,
      "htt": 4320,
      "commer": 4321,
      "science": 4322,
      "East": 4323,
      "song": 4324,
      "teeth": 4325,
      "release": 4326,
      "unique": 4327,
      "2000": 4328,
      "surround": 4329,
      "ager": 4330,
      "mineral": 4331,
      "applied": 4332,
      "City": 4333,
      "ublic": 4334,
      "root": 4335,
      "ably": 4336,
      "minute": 4337,
      "official": 4338,
      "://": 4339,
      "AS": 4340,
      "pump": 4341,
      "31": 4342,
      "programs": 4343,
      "extreme": 4344,
      "Ly": 4345,
      "looking": 4346,
      "viruses": 4347,
      "sweet": 4348,
      "85": 4349,
      "ix": 4350,
      "containing": 4351,
      "Fin": 4352,
      "band": 4353,
      "ament": 4354,
      "psycho": 4355,
      "bank": 4356,
      "potential": 4357,
      "Aug": 4358,
      "Ke": 4359,
      "Let": 4360,
      "federal": 4361,
      "supply": 4362,
      "Flor": 4363,
      "obtain": 4364,
      "fail": 4365,
      "gin": 4366,
      "ively": 4367,
      "uble": 4368,
      "mainly": 4369,
      "fair": 4370,
      "zo": 4371,
      "sleep": 4372,
      "embed": 4373,
      "solid": 4374,
      "limited": 4375,
      "IRA": 4376,
      "Food": 4377,
      "pic": 4378,
      "produces": 4379,
      "enzyme": 4380,
      "infected": 4381,
      "estive": 4382,
      "extract": 4383,
      "paint": 4384,
      "synthesis": 4385,
      "Top": 4386,
      "eating": 4387,
      "artment": 4388,
      "tall": 4389,
      "inse": 4390,
      "quite": 4391,
      "Pri": 4392,
      "island": 4393,
      "belong": 4394,
      "guide": 4395,
      "Vir": 4396,
      "pal": 4397,
      "atmosph": 4398,
      "style": 4399,
      "lif": 4400,
      "LE": 4401,
      "address": 4402,
      "rid": 4403,
      "terior": 4404,
      "press": 4405,
      "Germany": 4406,
      "mixture": 4407,
      "Mal": 4408,
      "aren": 4409,
      "Apr": 4410,
      "Ma": 4411,
      "print": 4412,
      "completely": 4413,
      "places": 4414,
      "injury": 4415,
      "Bar": 4416,
      "thus": 4417,
      "reference": 4418,
      "estimated": 4419,
      "context": 4420,
      "private": 4421,
      "nutr": 4422,
      "San": 4423,
      "matic": 4424,
      "combination": 4425,
      "ficiency": 4426,
      "Rus": 4427,
      "ering": 4428,
      "lled": 4429,
      "nutrients": 4430,
      "During": 4431,
      "sc": 4432,
      "cies": 4433,
      "requirements": 4434,
      "Lo": 4435,
      "Mid": 4436,
      "geo": 4437,
      "sand": 4438,
      "mind": 4439,
      "colors": 4440,
      "film": 4441,
      "OR": 4442,
      "majority": 4443,
      "itor": 4444,
      "glass": 4445,
      "OT": 4446,
      "website": 4447,
      "agen": 4448,
      "medication": 4449,
      "career": 4450,
      "walls": 4451,
      "Ho": 4452,
      "cro": 4453,
      "olar": 4454,
      "exce": 4455,
      "sian": 4456,
      "getting": 4457,
      "brew": 4458,
      "properties": 4459,
      "cture": 4460,
      "British": 4461,
      "beaut": 4462,
      "plus": 4463,
      "sentence": 4464,
      "roof": 4465,
      "phal": 4466,
      "kill": 4467,
      "corn": 4468,
      "regard": 4469,
      "agon": 4470,
      "goes": 4471,
      "ocean": 4472,
      "gets": 4473,
      "kidneys": 4474,
      "sets": 4475,
      "120": 4476,
      "Red": 4477,
      "ising": 4478,
      "began": 4479,
      "hind": 4480,
      "shaped": 4481,
      "lose": 4482,
      "amins": 4483,
      "article": 4484,
      "aches": 4485,
      "flavor": 4486,
      "....": 4487,
      "bring": 4488,
      "Char": 4489,
      "Pay": 4490,
      "double": 4491,
      "wards": 4492,
      "transl": 4493,
      "substances": 4494,
      "dominant": 4495,
      "ecut": 4496,
      "Ir": 4497,
      "tebr": 4498,
      "served": 4499,
      "stored": 4500,
      "thought": 4501,
      "video": 4502,
      "popularity": 4503,
      "girl": 4504,
      "improve": 4505,
      "owners": 4506,
      "prior": 4507,
      "provided": 4508,
      "says": 4509,
      "neurons": 4510,
      "Ca": 4511,
      "native": 4512,
      "mental": 4513,
      "agent": 4514,
      "supple": 4515,
      "love": 4516,
      "pas": 4517,
      "included": 4518,
      "naturally": 4519,
      "Florida": 4520,
      "host": 4521,
      "vices": 4522,
      "ache": 4523,
      "resist": 4524,
      ".)": 4525,
      "bil": 4526,
      "tub": 4527,
      "agree": 4528,
      "spring": 4529,
      "dire": 4530,
      "fine": 4531,
      "icles": 4532,
      "accept": 4533,
      "'.": 4534,
      "DA": 4535,
      "content": 4536,
      "amino": 4537,
      "za": 4538,
      "kets": 4539,
      "yourself": 4540,
      "http": 4541,
      "fly": 4542,
      "gran": 4543,
      "January": 4544,
      "IV": 4545,
      "thous": 4546,
      "basis": 4547,
      "smooth": 4548,
      "Windows": 4549,
      "April": 4550,
      "Sp": 4551,
      "tile": 4552,
      "compounds": 4553,
      "broad": 4554,
      "quickly": 4555,
      "relationship": 4556,
      "Pho": 4557,
      "repair": 4558,
      "IT": 4559,
      "Spe": 4560,
      "Sep": 4561,
      "itical": 4562,
      "heit": 4563,
      "affects": 4564,
      "49": 4565,
      "fort": 4566,
      "itude": 4567,
      "avoid": 4568,
      "diagn": 4569,
      "ukary": 4570,
      "baking": 4571,
      "rh": 4572,
      "prepare": 4573,
      "beef": 4574,
      "graphy": 4575,
      "raw": 4576,
      "vert": 4577,
      "ahren": 4578,
      "Labor": 4579,
      "mages": 4580,
      "Stat": 4581,
      "distribution": 4582,
      "ime": 4583,
      "stock": 4584,
      "ahrenheit": 4585,
      "omes": 4586,
      "renal": 4587,
      "regions": 4588,
      "offers": 4589,
      "circul": 4590,
      "August": 4591,
      "inf": 4592,
      "firm": 4593,
      "350": 4594,
      "tum": 4595,
      "asons": 4596,
      "stage": 4597,
      "ama": 4598,
      "parents": 4599,
      "electrical": 4600,
      "Dire": 4601,
      "Ter": 4602,
      "swell": 4603,
      "ancient": 4604,
      "ock": 4605,
      "publ": 4606,
      "begins": 4607,
      "nearly": 4608,
      "ske": 4609,
      "vertebr": 4610,
      "respect": 4611,
      "camp": 4612,
      "ification": 4613,
      "digestive": 4614,
      "mountain": 4615,
      "Gl": 4616,
      "leave": 4617,
      "pel": 4618,
      "helor": 4619,
      "records": 4620,
      "habit": 4621,
      "cryst": 4622,
      "dedu": 4623,
      "Indian": 4624,
      "vehicle": 4625,
      "sic": 4626,
      "ulin": 4627,
      "Associ": 4628,
      "signs": 4629,
      "respiratory": 4630,
      "detect": 4631,
      "Octo": 4632,
      "pool": 4633,
      "rent": 4634,
      "Congress": 4635,
      "October": 4636,
      "June": 4637,
      "wild": 4638,
      "particularly": 4639,
      "About": 4640,
      "record": 4641,
      "England": 4642,
      "girls": 4643,
      "further": 4644,
      "moist": 4645,
      "Cer": 4646,
      "IC": 4647,
      "abnormal": 4648,
      "magn": 4649,
      "Tur": 4650,
      "winter": 4651,
      "nature": 4652,
      "shell": 4653,
      "incub": 4654,
      "nerves": 4655,
      "globin": 4656,
      "Cy": 4657,
      "sample": 4658,
      "surv": 4659,
      "testing": 4660,
      "powder": 4661,
      "fing": 4662,
      "trig": 4663,
      "compound": 4664,
      "bud": 4665,
      "Medic": 4666,
      "pup": 4667,
      "wise": 4668,
      "onal": 4669,
      "lling": 4670,
      "waste": 4671,
      "hydrogen": 4672,
      "apter": 4673,
      "ression": 4674,
      "enzymes": 4675,
      "Her": 4676,
      "figure": 4677,
      "prin": 4678,
      "ned": 4679,
      "coder": 4680,
      "conduct": 4681,
      "quar": 4682,
      "aft": 4683,
      "relatively": 4684,
      "MS": 4685,
      "pti": 4686,
      "hemo": 4687,
      "techno": 4688,
      "Intern": 4689,
      "activities": 4690,
      "France": 4691,
      "Bu": 4692,
      "Fahrenheit": 4693,
      "Name": 4694,
      "points": 4695,
      "practice": 4696,
      "bath": 4697,
      "ny": 4698,
      "reng": 4699,
      "plays": 4700,
      "flowers": 4701,
      "omen": 4702,
      "195": 4703,
      "organization": 4704,
      "drop": 4705,
      "theli": 4706,
      "battery": 4707,
      "Rom": 4708,
      "ouch": 4709,
      "window": 4710,
      "got": 4711,
      "atoms": 4712,
      "finish": 4713,
      "drink": 4714,
      "financial": 4715,
      "LS": 4716,
      "cli": 4717,
      "www": 4718,
      "kin": 4719,
      "alone": 4720,
      "vin": 4721,
      "valve": 4722,
      "breath": 4723,
      "Island": 4724,
      "procedure": 4725,
      "difficult": 4726,
      "sauce": 4727,
      "1000": 4728,
      "iet": 4729,
      "accur": 4730,
      "horse": 4731,
      "dollars": 4732,
      "speak": 4733,
      "crust": 4734,
      "increases": 4735,
      "44": 4736,
      "lease": 4737,
      "umin": 4738,
      "ources": 4739,
      "cler": 4740,
      "sales": 4741,
      "foreign": 4742,
      "described": 4743,
      "pus": 4744,
      "components": 4745,
      "President": 4746,
      "concer": 4747,
      "spend": 4748,
      "affected": 4749,
      "whose": 4750,
      "rule": 4751,
      "mammal": 4752,
      "Am": 4753,
      "CD": 4754,
      "kg": 4755,
      "greater": 4756,
      "learning": 4757,
      "profession": 4758,
      "Home": 4759,
      "Vit": 4760,
      "tag": 4761,
      "chon": 4762,
      "unity": 4763,
      "House": 4764,
      "hatch": 4765,
      "sound": 4766,
      "zing": 4767,
      "oney": 4768,
      "vitamins": 4769,
      "thal": 4770,
      "lier": 4771,
      "oph": 4772,
      "Ital": 4773,
      "carbohydrates": 4774,
      "sit": 4775,
      "stain": 4776,
      "athy": 4777,
      "trade": 4778,
      "steps": 4779,
      "River": 4780,
      "reactions": 4781,
      "astro": 4782,
      "hood": 4783,
      "sodium": 4784,
      "Under": 4785,
      "describe": 4786,
      "fruits": 4787,
      "ift": 4788,
      "attle": 4789,
      "software": 4790,
      "Val": 4791,
      "stress": 4792,
      "construction": 4793,
      "physic": 4794,
      "starts": 4795,
      "enced": 4796,
      "undred": 4797,
      "Fig": 4798,
      "genus": 4799,
      "serve": 4800,
      "Bas": 4801,
      "east": 4802,
      "uture": 4803,
      "ledge": 4804,
      "Sw": 4805,
      "ito": 4806,
      "chest": 4807,
      "grade": 4808,
      "IS": 4809,
      "orith": 4810,
      "woman": 4811,
      "balance": 4812,
      "probability": 4813,
      "Step": 4814,
      "Tu": 4815,
      "cin": 4816,
      "pine": 4817,
      "story": 4818,
      "idence": 4819,
      "shop": 4820,
      "monthly": 4821,
      "purpose": 4822,
      "March": 4823,
      "Then": 4824,
      "izing": 4825,
      "bacterial": 4826,
      "actual": 4827,
      "duction": 4828,
      "characterized": 4829,
      "Emp": 4830,
      "counts": 4831,
      "labe": 4832,
      "potat": 4833,
      "Like": 4834,
      "ule": 4835,
      "ened": 4836,
      "ils": 4837,
      "discus": 4838,
      "intestine": 4839,
      "freezer": 4840,
      "currently": 4841,
      "Loc": 4842,
      "theory": 4843,
      "poison": 4844,
      "presence": 4845,
      "Gre": 4846,
      "Pat": 4847,
      "rub": 4848,
      "Hebrew": 4849,
      "Arab": 4850,
      "Phy": 4851,
      "ole": 4852,
      "rab": 4853,
      "loy": 4854,
      "County": 4855,
      "gus": 4856,
      "streng": 4857,
      "drin": 4858,
      "volume": 4859,
      "ington": 4860,
      "lives": 4861,
      "teen": 4862,
      "ries": 4863,
      "comput": 4864,
      "Great": 4865,
      "MP": 4866,
      "pict": 4867,
      "vector": 4868,
      "estic": 4869,
      "workers": 4870,
      "Sea": 4871,
      "98": 4872,
      "western": 4873,
      "user": 4874,
      "minal": 4875,
      "treated": 4876,
      "expenses": 4877,
      "CT": 4878,
      "eight": 4879,
      "quest": 4880,
      "compet": 4881,
      "equip": 4882,
      "rice": 4883,
      "rights": 4884,
      "involves": 4885,
      "algorith": 4886,
      "zone": 4887,
      "Child": 4888,
      "graduate": 4889,
      "embedding": 4890,
      "tose": 4891,
      "tele": 4892,
      "gard": 4893,
      "verb": 4894,
      "plastic": 4895,
      "ensity": 4896,
      "lam": 4897,
      "ads": 4898,
      "ameter": 4899,
      "epi": 4900,
      "beginning": 4901,
      "Ocean": 4902,
      "earch": 4903,
      "bond": 4904,
      "currency": 4905,
      "passed": 4906,
      "machine": 4907,
      "purchase": 4908,
      "ises": 4909,
      "tember": 4910,
      "ga": 4911,
      "kilome": 4912,
      "satur": 4913,
      "syll": 4914,
      "Another": 4915,
      "Common": 4916,
      "community": 4917,
      "throat": 4918,
      "roughly": 4919,
      "exercise": 4920,
      "sold": 4921,
      "umn": 4922,
      "files": 4923,
      "laws": 4924,
      "performance": 4925,
      "mol": 4926,
      "liter": 4927,
      "summer": 4928,
      "connective": 4929,
      "European": 4930,
      "Sou": 4931,
      "Wash": 4932,
      "father": 4933,
      "mult": 4934,
      "image": 4935,
      "presents": 4936,
      "northern": 4937,
      "volution": 4938,
      "Italian": 4939,
      "dat": 4940,
      "team": 4941,
      "cru": 4942,
      "ault": 4943,
      "cart": 4944,
      "harm": 4945,
      "web": 4946,
      "sport": 4947,
      "Pac": 4948,
      "Source": 4949,
      "Tech": 4950,
      "UK": 4951,
      "piece": 4952,
      "hundred": 4953,
      "processing": 4954,
      "famous": 4955,
      "started": 4956,
      "CA": 4957,
      "reli": 4958,
      "characteristics": 4959,
      "Ben": 4960,
      "gent": 4961,
      "len": 4962,
      "atives": 4963,
      "ingu": 4964,
      "distinct": 4965,
      "leading": 4966,
      "techni": 4967,
      "Origin": 4968,
      "mild": 4969,
      "token": 4970,
      "phosphate": 4971,
      "cof": 4972,
      "coup": 4973,
      "hepat": 4974,
      "flight": 4975,
      "feature": 4976,
      "Fam": 4977,
      "56": 4978,
      "join": 4979,
      "replacement": 4980,
      "atmosphere": 4981,
      "nes": 4982,
      "zen": 4983,
      "attention": 4984,
      "respiration": 4985,
      "neut": 4986,
      "final": 4987,
      "factor": 4988,
      "friend": 4989,
      "employees": 4990,
      "suggest": 4991,
      "grill": 4992,
      "formula": 4993,
      "serving": 4994,
      "assium": 4995,
      "kinds": 4996,
      "zes": 4997,
      "installed": 4998,
      "commercial": 4999,
      "Just": 5000,
      "Park": 5001,
      "thermo": 5002,
      "river": 5003,
      "polymer": 5004,
      "introduced": 5005,
      "climate": 5006,
      "”.": 5007,
      "inde": 5008,
      "artery": 5009,
      "Central": 5010,
      "review": 5011,
      "resulting": 5012,
      "42": 5013,
      "evalu": 5014,
      "Symptoms": 5015,
      "analysis": 5016,
      "hospital": 5017,
      "ES": 5018,
      "letal": 5019,
      "seg": 5020,
      "utions": 5021,
      "options": 5022,
      "properly": 5023,
      "Mer": 5024,
      "onto": 5025,
      "onom": 5026,
      "eding": 5027,
      "becomes": 5028,
      "fibers": 5029,
      "2009": 5030,
      "grown": 5031,
      "component": 5032,
      "cavity": 5033,
      "Wal": 5034,
      "vic": 5035,
      "Day": 5036,
      "cers": 5037,
      "inher": 5038,
      "cember": 5039,
      "2008": 5040,
      "received": 5041,
      "policy": 5042,
      "forward": 5043,
      "Sm": 5044,
      "isn": 5045,
      "arri": 5046,
      "Both": 5047,
      "perfect": 5048,
      "payment": 5049,
      "Medical": 5050,
      "Lon": 5051,
      "overall": 5052,
      "performed": 5053,
      "swelling": 5054,
      "lap": 5055,
      "immedi": 5056,
      "poses": 5057,
      "supp": 5058,
      "parent": 5059,
      "cast": 5060,
      "rist": 5061,
      "held": 5062,
      "loan": 5063,
      "chronic": 5064,
      "emer": 5065,
      "ficial": 5066,
      "Hist": 5067,
      "IR": 5068,
      "took": 5069,
      "wash": 5070,
      "gal": 5071,
      "meal": 5072,
      "behind": 5073,
      "perman": 5074,
      "walk": 5075,
      "pression": 5076,
      "tropical": 5077,
      "cam": 5078,
      "knee": 5079,
      "rash": 5080,
      "oste": 5081,
      "planet": 5082,
      "followed": 5083,
      "appears": 5084,
      "ureau": 5085,
      "Note": 5086,
      "target": 5087,
      "66": 5088,
      "inese": 5089,
      "pronounced": 5090,
      "assu": 5091,
      "________": 5092,
      "ror": 5093,
      "voc": 5094,
      "ante": 5095,
      "onia": 5096,
      "birds": 5097,
      "oder": 5098,
      "mention": 5099,
      "obic": 5100,
      "Set": 5101,
      "aid": 5102,
      "sch": 5103,
      "sav": 5104,
      "southern": 5105,
      "gage": 5106,
      "ensation": 5107,
      "paying": 5108,
      "running": 5109,
      "billion": 5110,
      "700": 5111,
      "zz": 5112,
      "dead": 5113,
      "Any": 5114,
      "died": 5115,
      "breast": 5116,
      "chromosomes": 5117,
      "attached": 5118,
      "September": 5119,
      "PV": 5120,
      "dent": 5121,
      "title": 5122,
      "BA": 5123,
      "Now": 5124,
      "Water": 5125,
      "cub": 5126,
      "pig": 5127,
      "boy": 5128,
      "TV": 5129,
      "pret": 5130,
      "schools": 5131,
      "stret": 5132,
      "employee": 5133,
      "Care": 5134,
      "ague": 5135,
      "pancre": 5136,
      "appropri": 5137,
      "OS": 5138,
      "dang": 5139,
      "Italy": 5140,
      "intestinal": 5141,
      "Mexico": 5142,
      "rules": 5143,
      "sin": 5144,
      "icate": 5145,
      "ilies": 5146,
      "custo": 5147,
      "screen": 5148,
      "Hum": 5149,
      "pies": 5150,
      "ocytes": 5151,
      "Irish": 5152,
      "64": 5153,
      "Cur": 5154,
      "Gen": 5155,
      "Haw": 5156,
      "View": 5157,
      "190": 5158,
      "Atlant": 5159,
      "wine": 5160,
      "rose": 5161,
      "quant": 5162,
      "Photo": 5163,
      "itation": 5164,
      "pert": 5165,
      "existing": 5166,
      "Blood": 5167,
      "depos": 5168,
      "boys": 5169,
      "therefore": 5170,
      "December": 5171,
      "Cook": 5172,
      "international": 5173,
      "72": 5174,
      "Fl": 5175,
      "usual": 5176,
      "ribo": 5177,
      "forming": 5178,
      "Mis": 5179,
      "Port": 5180,
      "Temp": 5181,
      "scr": 5182,
      "ret": 5183,
      "save": 5184,
      "London": 5185,
      "itchen": 5186,
      "classified": 5187,
      "ape": 5188,
      "achie": 5189,
      "cred": 5190,
      "knowledge": 5191,
      "connected": 5192,
      "rhea": 5193,
      "except": 5194,
      "ference": 5195,
      "Republic": 5196,
      "integr": 5197,
      "hu": 5198,
      "ife": 5199,
      "tight": 5200,
      "doing": 5201,
      "structions": 5202,
      "Mc": 5203,
      "roy": 5204,
      "grains": 5205,
      "mort": 5206,
      "items": 5207,
      "party": 5208,
      "industri": 5209,
      "Abuse": 5210,
      "Pacific": 5211,
      "68": 5212,
      "fig": 5213,
      "sius": 5214,
      "percentage": 5215,
      "cure": 5216,
      "scan": 5217,
      "unt": 5218,
      "worms": 5219,
      "chemicals": 5220,
      "Even": 5221,
      "dim": 5222,
      "comb": 5223,
      "spor": 5224,
      "technic": 5225,
      "legs": 5226,
      "profit": 5227,
      "uries": 5228,
      "mov": 5229,
      "frame": 5230,
      "choice": 5231,
      "protection": 5232,
      "frequently": 5233,
      "Sub": 5234,
      "tour": 5235,
      "task": 5236,
      "cos": 5237,
      "prog": 5238,
      "future": 5239,
      "cleaning": 5240,
      "sett": 5241,
      "identify": 5242,
      "arteries": 5243,
      "electricity": 5244,
      "CE": 5245,
      "bean": 5246,
      "button": 5247,
      "Read": 5248,
      "mito": 5249,
      "African": 5250,
      "execut": 5251,
      "tas": 5252,
      "votes": 5253,
      "repe": 5254,
      "tooth": 5255,
      "flour": 5256,
      "charged": 5257,
      "attack": 5258,
      "solar": 5259,
      "runs": 5260,
      "entially": 5261,
      "changed": 5262,
      "fungi": 5263,
      "fatty": 5264,
      "frequency": 5265,
      "behavior": 5266,
      "International": 5267,
      "Washington": 5268,
      "olf": 5269,
      "ades": 5270,
      "ingredients": 5271,
      "mia": 5272,
      "soon": 5273,
      "erature": 5274,
      "bene": 5275,
      "benefit": 5276,
      "established": 5277,
      "God": 5278,
      "Up": 5279,
      "domain": 5280,
      "pharm": 5281,
      "survey": 5282,
      "sediment": 5283,
      "eukary": 5284,
      "depart": 5285,
      "die": 5286,
      "sized": 5287,
      "Treat": 5288,
      "gic": 5289,
      "spl": 5290,
      "yo": 5291,
      "ascular": 5292,
      "tire": 5293,
      "cents": 5294,
      "producing": 5295,
      "histor": 5296,
      "lung": 5297,
      "43": 5298,
      "license": 5299,
      "methods": 5300,
      "Find": 5301,
      "Te": 5302,
      "spot": 5303,
      "cellular": 5304,
      "continue": 5305,
      "aper": 5306,
      "bic": 5307,
      "covers": 5308,
      "seal": 5309,
      "ado": 5310,
      "posure": 5311,
      "spr": 5312,
      "glut": 5313,
      "archite": 5314,
      "fats": 5315,
      "heavy": 5316,
      "renew": 5317,
      "stones": 5318,
      "Chinese": 5319,
      "vidence": 5320,
      "sides": 5321,
      "Colle": 5322,
      "pairs": 5323,
      "Spain": 5324,
      "aer": 5325,
      "cab": 5326,
      "wal": 5327,
      "leaf": 5328,
      "mature": 5329,
      "strength": 5330,
      "41": 5331,
      "IP": 5332,
      "Mac": 5333,
      "master": 5334,
      "Inst": 5335,
      "stick": 5336,
      "gel": 5337,
      "compar": 5338,
      "antibi": 5339,
      "equival": 5340,
      "equipment": 5341,
      "epitheli": 5342,
      "Imp": 5343,
      "tong": 5344,
      "iles": 5345,
      "brevi": 5346,
      "nas": 5347,
      "usage": 5348,
      "aph": 5349,
      "letter": 5350,
      "wedding": 5351,
      "saturated": 5352,
      "NS": 5353,
      "ivity": 5354,
      "marri": 5355,
      "court": 5356,
      "CP": 5357,
      "core": 5358,
      "bread": 5359,
      "ails": 5360,
      "CH": 5361,
      "cil": 5362,
      "broken": 5363,
      "rapid": 5364,
      "bonds": 5365,
      "joy": 5366,
      "initial": 5367,
      "Ve": 5368,
      "analy": 5369,
      "acqu": 5370,
      "fel": 5371,
      "Spr": 5372,
      "entity": 5373,
      "cel": 5374,
      "trip": 5375,
      "cream": 5376,
      "assign": 5377,
      "charges": 5378,
      "measured": 5379,
      "Sum": 5380,
      "asis": 5381,
      "adap": 5382,
      "trust": 5383,
      "civil": 5384,
      "salmon": 5385,
      "approach": 5386,
      "Bay": 5387,
      "gan": 5388,
      "rank": 5389,
      "bell": 5390,
      "Union": 5391,
      "oster": 5392,
      "matory": 5393,
      "180": 5394,
      "stores": 5395,
      "chromosome": 5396,
      "branch": 5397,
      "Del": 5398,
      "bing": 5399,
      "ilage": 5400,
      "mentation": 5401,
      "ternal": 5402,
      "linear": 5403,
      "pieces": 5404,
      "Sha": 5405,
      "represents": 5406,
      "aces": 5407,
      "storage": 5408,
      "His": 5409,
      "Hel": 5410,
      "onic": 5411,
      "copper": 5412,
      "adjust": 5413,
      "aments": 5414,
      "originally": 5415,
      "taxes": 5416,
      "Law": 5417,
      "pure": 5418,
      "wid": 5419,
      "kept": 5420,
      "soluble": 5421,
      "direction": 5422,
      "El": 5423,
      "RO": 5424,
      "registered": 5425,
      "cerebr": 5426,
      "nutrition": 5427,
      "88": 5428,
      "ba": 5429,
      "restr": 5430,
      "starch": 5431,
      "Constitution": 5432,
      "played": 5433,
      "graphic": 5434,
      "TS": 5435,
      "bits": 5436,
      "flex": 5437,
      "ples": 5438,
      "iff": 5439,
      "generation": 5440,
      "coffee": 5441,
      "hands": 5442,
      "win": 5443,
      "tiny": 5444,
      "ME": 5445,
      "Met": 5446,
      "nodes": 5447,
      "wave": 5448,
      "adding": 5449,
      "stra": 5450,
      "Cap": 5451,
      "Out": 5452,
      "ety": 5453,
      "ogen": 5454,
      "yet": 5455,
      "Before": 5456,
      "USA": 5457,
      "nucleot": 5458,
      "Fi": 5459,
      "Sto": 5460,
      "erup": 5461,
      "orph": 5462,
      "modif": 5463,
      "studies": 5464,
      "details": 5465,
      "Sch": 5466,
      "Share": 5467,
      "applications": 5468,
      "MA": 5469,
      "Sup": 5470,
      "bri": 5471,
      "closed": 5472,
      "reduced": 5473,
      "removed": 5474,
      "%.": 5475,
      "Bor": 5476,
      "Wik": 5477,
      "pun": 5478,
      "eds": 5479,
      "rix": 5480,
      "elev": 5481,
      "medications": 5482,
      "radiation": 5483,
      "Western": 5484,
      "ns": 5485,
      "paras": 5486,
      "remains": 5487,
      "bachelor": 5488,
      "hemoglobin": 5489,
      "Vitamin": 5490,
      "urinary": 5491,
      "iday": 5492,
      "exposure": 5493,
      "iful": 5494,
      "eli": 5495,
      "ophy": 5496,
      "fertil": 5497,
      "spine": 5498,
      "correspon": 5499,
      "potassium": 5500,
      "tube": 5501,
      "hibit": 5502,
      "hous": 5503,
      "lack": 5504,
      "else": 5505,
      "combined": 5506,
      "ressive": 5507,
      "iving": 5508,
      "Bi": 5509,
      "rum": 5510,
      "oul": 5511,
      "audi": 5512,
      "determined": 5513,
      "Check": 5514,
      "Bureau": 5515,
      "roots": 5516,
      "mption": 5517,
      "grain": 5518,
      "vention": 5519,
      "juice": 5520,
      "appropriate": 5521,
      "La": 5522,
      "kitchen": 5523,
      "apart": 5524,
      "exchange": 5525,
      "endment": 5526,
      "sheet": 5527,
      "rooms": 5528,
      "budget": 5529,
      "irrit": 5530,
      "focus": 5531,
      "insulin": 5532,
      "augh": 5533,
      "shoulder": 5534,
      "nuts": 5535,
      "favor": 5536,
      "ka": 5537,
      "selves": 5538,
      "Celsius": 5539,
      "chondri": 5540,
      "hepatitis": 5541,
      "Net": 5542,
      "pick": 5543,
      "tables": 5544,
      "deli": 5545,
      "Cell": 5546,
      "pink": 5547,
      "skills": 5548,
      "logists": 5549,
      "inflammatory": 5550,
      "cough": 5551,
      "max": 5552,
      "signal": 5553,
      "extremely": 5554,
      "Roman": 5555,
      "Fol": 5556,
      "ners": 5557,
      "stead": 5558,
      "lab": 5559,
      "reasons": 5560,
      "iding": 5561,
      "minor": 5562,
      "fund": 5563,
      "appearance": 5564,
      "contrast": 5565,
      "Fed": 5566,
      "surname": 5567,
      "viol": 5568,
      "writing": 5569,
      "lying": 5570,
      "abdomin": 5571,
      "dip": 5572,
      "anything": 5573,
      "embr": 5574,
      "recorded": 5575,
      "Statistics": 5576,
      "eco": 5577,
      "wish": 5578,
      "ota": 5579,
      "Remove": 5580,
      "couple": 5581,
      "impact": 5582,
      "capac": 5583,
      "Internet": 5584,
      "questions": 5585,
      "59": 5586,
      "nine": 5587,
      "ensure": 5588,
      "lia": 5589,
      "note": 5590,
      "mod": 5591,
      "logist": 5592,
      "toxic": 5593,
      "iring": 5594,
      "ipedia": 5595,
      "distingu": 5596,
      "Department": 5597,
      "vine": 5598,
      "aware": 5599,
      "annually": 5600,
      "Prote": 5601,
      "purposes": 5602,
      "receptors": 5603,
      "Mag": 5604,
      "Thus": 5605,
      "ously": 5606,
      "cortex": 5607,
      "flag": 5608,
      "Virgin": 5609,
      "corpus": 5610,
      "marke": 5611,
      "electron": 5612,
      "student": 5613,
      "ogle": 5614,
      "bowl": 5615,
      "ictionary": 5616,
      "Lu": 5617,
      "Nat": 5618,
      "owner": 5619,
      "67": 5620,
      "mine": 5621,
      "resources": 5622,
      "strum": 5623,
      "Cons": 5624,
      "Nur": 5625,
      "ming": 5626,
      "touch": 5627,
      "ctic": 5628,
      "pers": 5629,
      "equivalent": 5630,
      "va": 5631,
      "wers": 5632,
      "anch": 5633,
      "Sometimes": 5634,
      "trained": 5635,
      "advant": 5636,
      "Sa": 5637,
      "Two": 5638,
      "complic": 5639,
      "dissol": 5640,
      "explo": 5641,
      "Test": 5642,
      "apor": 5643,
      "books": 5644,
      "metals": 5645,
      "classes": 5646,
      "indicate": 5647,
      "concentration": 5648,
      "thousands": 5649,
      "Cred": 5650,
      "Lin": 5651,
      "chart": 5652,
      "llular": 5653,
      "issue": 5654,
      "believe": 5655,
      "cats": 5656,
      "evidence": 5657,
      "fy": 5658,
      "wheat": 5659,
      "tok": 5660,
      "2007": 5661,
      "setting": 5662,
      "nuclear": 5663,
      "bird": 5664,
      "Ed": 5665,
      "Egy": 5666,
      "Time": 5667,
      "border": 5668,
      "inser": 5669,
      "enty": 5670,
      "plasm": 5671,
      "vest": 5672,
      "xy": 5673,
      "orange": 5674,
      "crine": 5675,
      "Eng": 5676,
      "Social": 5677,
      "ATP": 5678,
      "skeletal": 5679,
      "LL": 5680,
      "jection": 5681,
      "General": 5682,
      "category": 5683,
      "Association": 5684,
      "ali": 5685,
      "mobile": 5686,
      "formal": 5687,
      "families": 5688,
      "household": 5689,
      ",”": 5690,
      "Ur": 5691,
      "farm": 5692,
      "faster": 5693,
      "vac": 5694,
      "izes": 5695,
      "seconds": 5696,
      "Class": 5697,
      "tradition": 5698,
      "wait": 5699,
      "450": 5700,
      "tons": 5701,
      "abbrevi": 5702,
      "external": 5703,
      "mented": 5704,
      "bright": 5705,
      "domestic": 5706,
      "spoken": 5707,
      "nitrogen": 5708,
      "Cre": 5709,
      "Roth": 5710,
      "Ze": 5711,
      "instit": 5712,
      "particles": 5713,
      "Bab": 5714,
      "Elect": 5715,
      "fight": 5716,
      "White": 5717,
      "issues": 5718,
      "humid": 5719,
      "scientific": 5720,
      "fre": 5721,
      "jud": 5722,
      "ung": 5723,
      "column": 5724,
      "possess": 5725,
      "instance": 5726,
      "constant": 5727,
      "Install": 5728,
      "HD": 5729,
      "sen": 5730,
      "filter": 5731,
      "variable": 5732,
      "mixed": 5733,
      "Make": 5734,
      "Post": 5735,
      "rier": 5736,
      "ensus": 5737,
      "happens": 5738,
      "fixed": 5739,
      "narrow": 5740,
      "Rel": 5741,
      "looks": 5742,
      "surge": 5743,
      "sentences": 5744,
      "Fun": 5745,
      "Ver": 5746,
      "ode": 5747,
      "umber": 5748,
      "weak": 5749,
      "specifically": 5750,
      "Micro": 5751,
      "Edit": 5752,
      "cities": 5753,
      "deb": 5754,
      "depression": 5755,
      "linked": 5756,
      "Generally": 5757,
      ");": 5758,
      "Don": 5759,
      "wire": 5760,
      "loid": 5761,
      "Ther": 5762,
      "contag": 5763,
      "plasma": 5764,
      "status": 5765,
      "iatric": 5766,
      "tongue": 5767,
      "PE": 5768,
      "pod": 5769,
      "ranging": 5770,
      "vag": 5771,
      "spin": 5772,
      "possib": 5773,
      "differences": 5774,
      "ests": 5775,
      "iva": 5776,
      "mile": 5777,
      "intr": 5778,
      "anx": 5779,
      "reci": 5780,
      "colo": 5781,
      "oty": 5782,
      "wear": 5783,
      "diar": 5784,
      "biological": 5785,
      "tokens": 5786,
      "UN": 5787,
      "alb": 5788,
      "grows": 5789,
      "Conf": 5790,
      "guar": 5791,
      "900": 5792,
      "gro": 5793,
      "itic": 5794,
      "perm": 5795,
      "clus": 5796,
      "viral": 5797,
      "player": 5798,
      "clinical": 5799,
      "straight": 5800,
      "oud": 5801,
      "allowed": 5802,
      "Hawai": 5803,
      "College": 5804,
      "Ass": 5805,
      "Low": 5806,
      "NP": 5807,
      "lac": 5808,
      "zon": 5809,
      "deci": 5810,
      "increasing": 5811,
      "biology": 5812,
      "events": 5813,
      "Credit": 5814,
      "51": 5815,
      "DE": 5816,
      "Ire": 5817,
      "ena": 5818,
      "match": 5819,
      "technology": 5820,
      "homes": 5821,
      "diameter": 5822,
      "compare": 5823,
      "contamin": 5824,
      "assess": 5825,
      "themselves": 5826,
      "Web": 5827,
      "driving": 5828,
      "ville": 5829,
      "mammals": 5830,
      "contagious": 5831,
      "Center": 5832,
      "yard": 5833,
      "president": 5834,
      "alternative": 5835,
      "sho": 5836,
      "drain": 5837,
      "worked": 5838,
      "phrase": 5839,
      "Je": 5840,
      "volcano": 5841,
      "beautiful": 5842,
      "School": 5843,
      "fa": 5844,
      "efficient": 5845,
      "Service": 5846,
      "Kingdom": 5847,
      "garden": 5848,
      "Bro": 5849,
      "anterior": 5850,
      "icon": 5851,
      "occas": 5852,
      "whereas": 5853,
      "Code": 5854,
      "measures": 5855,
      "dental": 5856,
      "intake": 5857,
      "urt": 5858,
      "ordin": 5859,
      "Fo": 5860,
      "LD": 5861,
      "ratio": 5862,
      "63": 5863,
      "69": 5864,
      "reports": 5865,
      "iced": 5866,
      "stable": 5867,
      "bear": 5868,
      "span": 5869,
      "aff": 5870,
      "penal": 5871,
      "nurse": 5872,
      "thermometer": 5873,
      "gastro": 5874,
      "letters": 5875,
      "legis": 5876,
      "iliar": 5877,
      "cartilage": 5878,
      "aint": 5879,
      "Middle": 5880,
      "Nove": 5881,
      "ered": 5882,
      "orge": 5883,
      "heating": 5884,
      "imple": 5885,
      "Black": 5886,
      "prescri": 5887,
      "aked": 5888,
      "ventric": 5889,
      "carries": 5890,
      "Vis": 5891,
      "Var": 5892,
      "tomat": 5893,
      "rises": 5894,
      "follows": 5895,
      "DI": 5896,
      "fers": 5897,
      "mium": 5898,
      "lection": 5899,
      "unless": 5900,
      "reser": 5901,
      "strand": 5902,
      "notice": 5903,
      "steak": 5904,
      "poster": 5905,
      "twice": 5906,
      "November": 5907,
      "Please": 5908,
      "lock": 5909,
      "employment": 5910,
      "ENT": 5911,
      "exactly": 5912,
      "published": 5913,
      "immediately": 5914,
      "79": 5915,
      "Face": 5916,
      "stro": 5917,
      "influence": 5918,
      "Gold": 5919,
      "arms": 5920,
      "illa": 5921,
      "foil": 5922,
      "flav": 5923,
      "visible": 5924,
      "Phil": 5925,
      "DV": 5926,
      "Hol": 5927,
      "gers": 5928,
      "ius": 5929,
      "entry": 5930,
      "bron": 5931,
      "Hor": 5932,
      "ths": 5933,
      "urch": 5934,
      "promo": 5935,
      "females": 5936,
      "poon": 5937,
      "matrix": 5938,
      "functional": 5939,
      "establish": 5940,
      "Green": 5941,
      "tasks": 5942,
      "Learn": 5943,
      "Tax": 5944,
      "fab": 5945,
      "hit": 5946,
      "pto": 5947,
      "retail": 5948,
      "alumin": 5949,
      "decl": 5950,
      "proto": 5951,
      "quarter": 5952,
      "airy": 5953,
      "yeast": 5954,
      "everything": 5955,
      "MD": 5956,
      "dor": 5957,
      "dut": 5958,
      "paste": 5959,
      "wages": 5960,
      "islands": 5961,
      "bruary": 5962,
      "abdominal": 5963,
      "58": 5964,
      "edge": 5965,
      "suit": 5966,
      "frag": 5967,
      "62": 5968,
      "density": 5969,
      "instrum": 5970,
      "acre": 5971,
      "lost": 5972,
      "desert": 5973,
      "controlled": 5974,
      "pregnant": 5975,
      "nal": 5976,
      "acute": 5977,
      "olive": 5978,
      "dial": 5979,
      "160": 5980,
      "AB": 5981,
      "cash": 5982,
      "enjoy": 5983,
      "asp": 5984,
      "astern": 5985,
      "conce": 5986,
      "Off": 5987,
      "global": 5988,
      "variant": 5989,
      "neuron": 5990,
      "pne": 5991,
      "Their": 5992,
      "poor": 5993,
      "goods": 5994,
      "Blue": 5995,
      "potatoes": 5996,
      "discovered": 5997,
      "visual": 5998,
      "composition": 5999,
      "customers": 6000,
      "Bank": 6001,
      "goal": 6002,
      "standing": 6003,
      "classification": 6004,
      "frozen": 6005,
      "surrounding": 6006,
      "ws": 6007,
      "ounce": 6008,
      "ieties": 6009,
      "angle": 6010,
      "container": 6011,
      "approved": 6012,
      "ituitary": 6013,
      "consisting": 6014,
      "invented": 6015,
      "magnes": 6016,
      "Engine": 6017,
      "seat": 6018,
      "security": 6019,
      "track": 6020,
      "wet": 6021,
      "garlic": 6022,
      "Plant": 6023,
      "safety": 6024,
      "78": 6025,
      "item": 6026,
      "earlier": 6027,
      "consult": 6028,
      "Americans": 6029,
      "stands": 6030,
      "morning": 6031,
      "message": 6032,
      "explain": 6033,
      "Lou": 6034,
      "Vol": 6035,
      "aort": 6036,
      "lbs": 6037,
      "instructions": 6038,
      "omas": 6039,
      "prepar": 6040,
      "digestion": 6041,
      "52": 6042,
      "soy": 6043,
      "earning": 6044,
      "pheral": 6045,
      "powerful": 6046,
      "operating": 6047,
      "Noun": 6048,
      "coli": 6049,
      "lobe": 6050,
      "neural": 6051,
      "Information": 6052,
      "Start": 6053,
      "140": 6054,
      "earnings": 6055,
      "particip": 6056,
      "providing": 6057,
      "describes": 6058,
      "transmitted": 6059,
      "dur": 6060,
      "kit": 6061,
      "ani": 6062,
      "ara": 6063,
      "adject": 6064,
      "oppos": 6065,
      "2006": 6066,
      "Georg": 6067,
      "forests": 6068,
      "diarrhea": 6069,
      "Bre": 6070,
      "Pal": 6071,
      "Tod": 6072,
      "ester": 6073,
      "shot": 6074,
      "gency": 6075,
      "Conne": 6076,
      "Company": 6077,
      "algorithm": 6078,
      "Rad": 6079,
      "alpha": 6080,
      "mocr": 6081,
      "idden": 6082,
      "ief": 6083,
      "Keep": 6084,
      "Mass": 6085,
      "fas": 6086,
      "images": 6087,
      "uck": 6088,
      "ontal": 6089,
      "arily": 6090,
      "ulum": 6091,
      "Enter": 6092,
      "Depending": 6093,
      "coccus": 6094,
      "Every": 6095,
      "Pa": 6096,
      "Sen": 6097,
      "email": 6098,
      "menu": 6099,
      "psych": 6100,
      "Type": 6101,
      "Confidence": 6102,
      "MI": 6103,
      "gases": 6104,
      "oids": 6105,
      "ological": 6106,
      "seem": 6107,
      "cript": 6108,
      "periods": 6109,
      "Virginia": 6110,
      "Facebook": 6111,
      "List": 6112,
      "pituitary": 6113,
      "abase": 6114,
      "tea": 6115,
      "exam": 6116,
      "memory": 6117,
      "reading": 6118,
      "allowing": 6119,
      "specialized": 6120,
      "Google": 6121,
      "deduct": 6122,
      ".).": 6123,
      "acade": 6124,
      "ami": 6125,
      "plural": 6126,
      "pher": 6127,
      "yearly": 6128,
      "Examples": 6129,
      "February": 6130,
      "spirit": 6131,
      "accurate": 6132,
      "Full": 6133,
      "haps": 6134,
      "mell": 6135,
      "cele": 6136,
      "otal": 6137,
      "kel": 6138,
      "Stand": 6139,
      "Chris": 6140,
      "valid": 6141,
      "Northern": 6142,
      "restaur": 6143,
      "opening": 6144,
      "filled": 6145,
      "Open": 6146,
      "thic": 6147,
      "theast": 6148,
      "retain": 6149,
      "otics": 6150,
      "greatly": 6151,
      "collection": 6152,
      "vanced": 6153,
      "magnesium": 6154,
      "vote": 6155,
      "remember": 6156,
      "consum": 6157,
      "withdraw": 6158,
      "netic": 6159,
      "strain": 6160,
      "Stre": 6161,
      "fridge": 6162,
      "reaches": 6163,
      "cape": 6164,
      "orses": 6165,
      "giving": 6166,
      "receives": 6167,
      "metabolism": 6168,
      "(#": 6169,
      "Na": 6170,
      "vom": 6171,
      "icing": 6172,
      "deliver": 6173,
      "estate": 6174,
      "varieties": 6175,
      "electro": 6176,
      "sensory": 6177,
      "wonder": 6178,
      "Willi": 6179,
      "LO": 6180,
      "vast": 6181,
      "lysis": 6182,
      "provider": 6183,
      "electrons": 6184,
      "repl": 6185,
      "amed": 6186,
      "foss": 6187,
      "cycl": 6188,
      "steel": 6189,
      "documents": 6190,
      "anxiety": 6191,
      "Ireland": 6192,
      "TO": 6193,
      "pm": 6194,
      "spray": 6195,
      "relig": 6196,
      "signals": 6197,
      "leges": 6198,
      "citiz": 6199,
      "lete": 6200,
      "antig": 6201,
      "ferent": 6202,
      "ideal": 6203,
      "flows": 6204,
      "scores": 6205,
      "customer": 6206,
      "lb": 6207,
      "shel": 6208,
      "oline": 6209,
      "Security": 6210,
      "mitochondri": 6211,
      "LP": 6212,
      "endocrine": 6213,
      "James": 6214,
      "mac": 6215,
      "orbit": 6216,
      "brow": 6217,
      "cket": 6218,
      "veins": 6219,
      "teas": 6220,
      "strate": 6221,
      "speaking": 6222,
      "generate": 6223,
      "economic": 6224,
      "RN": 6225,
      "station": 6226,
      "loin": 6227,
      "territ": 6228,
      "prescription": 6229,
      "125": 6230,
      "trait": 6231,
      "posterior": 6232,
      "PD": 6233,
      "kers": 6234,
      "moves": 6235,
      "examin": 6236,
      "bleeding": 6237,
      "military": 6238,
      "occurring": 6239,
      "ennial": 6240,
      "Cam": 6241,
      "rig": 6242,
      "compl": 6243,
      "easier": 6244,
      "antibodies": 6245,
      "Prof": 6246,
      "falls": 6247,
      "removal": 6248,
      "finger": 6249,
      "index": 6250,
      "77": 6251,
      "umat": 6252,
      "processed": 6253,
      "metres": 6254,
      "Comm": 6255,
      "width": 6256,
      "kary": 6257,
      "isol": 6258,
      "concept": 6259,
      "division": 6260,
      "opa": 6261,
      "sexual": 6262,
      "package": 6263,
      "Mil": 6264,
      "Yes": 6265,
      "dates": 6266,
      "sor": 6267,
      "recess": 6268,
      "ulated": 6269,
      "antic": 6270,
      "ensed": 6271,
      "relax": 6272,
      "mptom": 6273,
      "polar": 6274,
      "employer": 6275,
      "elles": 6276,
      "agreement": 6277,
      "Select": 6278,
      "cous": 6279,
      "fal": 6280,
      "gut": 6281,
      "wat": 6282,
      "ques": 6283,
      "rib": 6284,
      "disc": 6285,
      "tenance": 6286,
      "locations": 6287,
      "characters": 6288,
      "failure": 6289,
      "prepared": 6290,
      "Penn": 6291,
      "bind": 6292,
      "dys": 6293,
      "sched": 6294,
      "independent": 6295,
      "compensation": 6296,
      "parti": 6297,
      "capill": 6298,
      "circu": 6299,
      "insects": 6300,
      "Good": 6301,
      "oso": 6302,
      "ature": 6303,
      "worm": 6304,
      "emia": 6305,
      "eastern": 6306,
      "convert": 6307,
      "suffer": 6308,
      "Pu": 6309,
      "Part": 6310,
      "gon": 6311,
      "devices": 6312,
      "izer": 6313,
      "Organ": 6314,
      "membranes": 6315,
      "feeding": 6316,
      "decrease": 6317,
      "diagnosis": 6318,
      "Men": 6319,
      "emotion": 6320,
      "oz": 6321,
      "waves": 6322,
      "ym": 6323,
      "aryn": 6324,
      "Normal": 6325,
      "characteristic": 6326,
      "pathogen": 6327,
      "Atlantic": 6328,
      "Leg": 6329,
      "Sim": 6330,
      "Ven": 6331,
      "pects": 6332,
      "controls": 6333,
      "stitute": 6334,
      "Wikipedia": 6335,
      "elimin": 6336,
      "mist": 6337,
      "heated": 6338,
      "lots": 6339,
      "users": 6340,
      "ada": 6341,
      "request": 6342,
      "anna": 6343,
      "certified": 6344,
      "iod": 6345,
      "pin": 6346,
      "scar": 6347,
      "toward": 6348,
      "finding": 6349,
      "fract": 6350,
      "dependence": 6351,
      "reflect": 6352,
      "76": 6353,
      "Bus": 6354,
      "Cour": 6355,
      "Pen": 6356,
      "furn": 6357,
      "watch": 6358,
      "andom": 6359,
      "iling": 6360,
      "excell": 6361,
      "bases": 6362,
      "digest": 6363,
      "53": 6364,
      "Back": 6365,
      "dense": 6366,
      "honey": 6367,
      "pH": 6368,
      "rout": 6369,
      "aden": 6370,
      "actor": 6371,
      "meanings": 6372,
      "happen": 6373,
      "Are": 6374,
      "ays": 6375,
      "Therefore": 6376,
      "aska": 6377,
      "remaining": 6378,
      "nursing": 6379,
      "Overview": 6380,
      "Certi": 6381,
      "Bio": 6382,
      "semi": 6383,
      "abund": 6384,
      "ulty": 6385,
      "neigh": 6386,
      "creating": 6387,
      "dangerous": 6388,
      "Str": 6389,
      "cable": 6390,
      "went": 6391,
      "demand": 6392,
      "iger": 6393,
      "doors": 6394,
      "organelles": 6395,
      "employed": 6396,
      "expression": 6397,
      "glyco": 6398,
      "candid": 6399,
      "Bac": 6400,
      "Edu": 6401,
      "FL": 6402,
      "HA": 6403,
      "PS": 6404,
      "rhy": 6405,
      "ano": 6406,
      "shire": 6407,
      "founded": 6408,
      "write": 6409,
      "Mary": 6410,
      "foc": 6411,
      "elig": 6412,
      "precip": 6413,
      "oldest": 6414,
      "tempor": 6415,
      "Contro": 6416,
      "asked": 6417,
      "mir": 6418,
      "Intro": 6419,
      "bles": 6420,
      "treatments": 6421,
      "please": 6422,
      "pancreas": 6423,
      "Lar": 6424,
      "lasts": 6425,
      "sq": 6426,
      "eness": 6427,
      "seems": 6428,
      "doctors": 6429,
      "ops": 6430,
      "closely": 6431,
      "Preheat": 6432,
      "residents": 6433,
      "incubation": 6434,
      "drinking": 6435,
      "Oc": 6436,
      "vant": 6437,
      "ya": 6438,
      "ulf": 6439,
      "utch": 6440,
      "qualify": 6441,
      "Canadian": 6442,
      "algae": 6443,
      "--------": 6444,
      "AA": 6445,
      "CC": 6446,
      "fold": 6447,
      "lean": 6448,
      "park": 6449,
      "Chapter": 6450,
      "planning": 6451,
      "Only": 6452,
      "mistry": 6453,
      "Phone": 6454,
      "Australian": 6455,
      "dimens": 6456,
      "god": 6457,
      "ria": 6458,
      "carb": 6459,
      "sale": 6460,
      "apped": 6461,
      "developing": 6462,
      "players": 6463,
      "estimates": 6464,
      "destroy": 6465,
      "Bur": 6466,
      "ffe": 6467,
      "recip": 6468,
      "unch": 6469,
      "plates": 6470,
      "ips": 6471,
      "babies": 6472,
      "commit": 6473,
      "secondary": 6474,
      "eventually": 6475,
      "permanent": 6476,
      "stretch": 6477,
      "Wel": 6478,
      "transmission": 6479,
      "texture": 6480,
      "personality": 6481,
      "Dav": 6482,
      "Pow": 6483,
      "deficiency": 6484,
      "igins": 6485,
      "tiv": 6486,
      "syl": 6487,
      "vised": 6488,
      "2005": 6489,
      "county": 6490,
      "techn": 6491,
      "faces": 6492,
      "dL": 6493,
      "din": 6494,
      "edit": 6495,
      "adj": 6496,
      "brush": 6497,
      "digital": 6498,
      "substit": 6499,
      "manufactur": 6500,
      "resem": 6501,
      "gray": 6502,
      "spent": 6503,
      "izations": 6504,
      "bacterium": 6505,
      "sugars": 6506,
      "Life": 6507,
      "Research": 6508,
      "zero": 6509,
      "engineering": 6510,
      "Japanese": 6511,
      "NOT": 6512,
      "vs": 6513,
      "mps": 6514,
      "attend": 6515,
      "leads": 6516,
      "averages": 6517,
      "bathroom": 6518,
      "Bet": 6519,
      "Total": 6520,
      "dairy": 6521,
      "ios": 6522,
      "arian": 6523,
      "bey": 6524,
      "una": 6525,
      "plans": 6526,
      "clust": 6527,
      "recipe": 6528,
      "vomiting": 6529,
      "Ret": 6530,
      "threat": 6531,
      "amorph": 6532,
      "dos": 6533,
      "owned": 6534,
      "berry": 6535,
      "celebr": 6536,
      "Ru": 6537,
      "ingles": 6538,
      "olina": 6539,
      "extension": 6540,
      "Follow": 6541,
      "Ga": 6542,
      "attemp": 6543,
      "cot": 6544,
      "mode": 6545,
      "trial": 6546,
      "peripheral": 6547,
      "numerous": 6548,
      "Color": 6549,
      "friends": 6550,
      "consumption": 6551,
      "album": 6552,
      "74": 6553,
      "retire": 6554,
      "proof": 6555,
      "monitor": 6556,
      "cade": 6557,
      "covering": 6558,
      "Poly": 6559,
      "driveway": 6560,
      "recognized": 6561,
      "kilometers": 6562,
      "figures": 6563,
      "Educ": 6564,
      "Dise": 6565,
      "ato": 6566,
      "chi": 6567,
      "shor": 6568,
      "opport": 6569,
      "format": 6570,
      "desired": 6571,
      "craft": 6572,
      "issued": 6573,
      "completed": 6574,
      "positions": 6575,
      "vegetable": 6576,
      "synthetic": 6577,
      "mountains": 6578,
      "contribute": 6579,
      "%)": 6580,
      "Hear": 6581,
      "Si": 6582,
      "sions": 6583,
      "lived": 6584,
      "bridge": 6585,
      "Anti": 6586,
      "purchased": 6587,
      "mortgage": 6588,
      "ml": 6589,
      "send": 6590,
      "beat": 6591,
      "media": 6592,
      "reached": 6593,
      "86": 6594,
      "NE": 6595,
      "erate": 6596,
      "phase": 6597,
      "berries": 6598,
      "identified": 6599,
      "keeping": 6600,
      "atomic": 6601,
      "receptor": 6602,
      "pretty": 6603,
      "opposite": 6604,
      "Bra": 6605,
      "Que": 6606,
      "UR": 6607,
      "VER": 6608,
      "athe": 6609,
      "coding": 6610,
      "cury": 6611,
      "itching": 6612,
      "autoimmune": 6613,
      "Airport": 6614,
      "split": 6615,
      "academic": 6616,
      "Bel": 6617,
      "Civ": 6618,
      "kids": 6619,
      "pically": 6620,
      "tension": 6621,
      "vents": 6622,
      "moon": 6623,
      "uterus": 6624,
      "biggest": 6625,
      "understanding": 6626,
      "phenomen": 6627,
      "MO": 6628,
      "Pan": 6629,
      "fif": 6630,
      "gate": 6631,
      "ues": 6632,
      "subs": 6633,
      "limits": 6634,
      "laboratory": 6635,
      "54": 6636,
      "gies": 6637,
      "han": 6638,
      "anks": 6639,
      "abilities": 6640,
      "acting": 6641,
      "ducts": 6642,
      "usea": 6643,
      "bert": 6644,
      "osed": 6645,
      "thyl": 6646,
      "sequences": 6647,
      "fields": 6648,
      "Federal": 6649,
      "mers": 6650,
      "pap": 6651,
      "ston": 6652,
      "odor": 6653,
      "ribs": 6654,
      "Ann": 6655,
      "cytoplasm": 6656,
      "Georgia": 6657,
      "ED": 6658,
      "Free": 6659,
      "Take": 6660,
      "Usu": 6661,
      "ranged": 6662,
      "becoming": 6663,
      "generat": 6664,
      "lining": 6665,
      "measurement": 6666,
      "moderate": 6667,
      "believed": 6668,
      "resistance": 6669,
      "cubic": 6670,
      "Gar": 6671,
      "akness": 6672,
      "iate": 6673,
      "tensive": 6674,
      "raised": 6675,
      "facts": 6676,
      "gallon": 6677,
      "picture": 6678,
      "marketing": 6679,
      "colored": 6680,
      "Today": 6681,
      "rane": 6682,
      "tank": 6683,
      "mold": 6684,
      "tip": 6685,
      "manager": 6686,
      "calculator": 6687,
      "supplements": 6688,
      "BLS": 6689,
      "yield": 6690,
      "rod": 6691,
      "hear": 6692,
      "ounces": 6693,
      "mush": 6694,
      "capacity": 6695,
      "hidden": 6696,
      "veter": 6697,
      "idal": 6698,
      "ols": 6699,
      "symptom": 6700,
      "cardiac": 6701,
      "passport": 6702,
      "130": 6703,
      "Mor": 6704,
      "Tom": 6705,
      "bake": 6706,
      "pts": 6707,
      "hearing": 6708,
      "lief": 6709,
      "perior": 6710,
      "silver": 6711,
      "physician": 6712,
      "movie": 6713,
      "Jer": 6714,
      "Lake": 6715,
      "vy": 6716,
      "political": 6717,
      "ibility": 6718,
      "George": 6719,
      "environmental": 6720,
      "shares": 6721,
      "junction": 6722,
      "settings": 6723,
      "sedimentary": 6724,
      "cerebral": 6725,
      "Usually": 6726,
      "89": 6727,
      "nest": 6728,
      "tab": 6729,
      "ola": 6730,
      "shall": 6731,
      "preser": 6732,
      "involve": 6733,
      "Islands": 6734,
      "professionals": 6735,
      "Dri": 6736,
      "fan": 6737,
      "aland": 6738,
      "exposed": 6739,
      "creates": 6740,
      "circum": 6741,
      "Prince": 6742,
      "supplies": 6743,
      "Human": 6744,
      "penalty": 6745,
      "excellent": 6746,
      "vital": 6747,
      "ita": 6748,
      "utes": 6749,
      "grav": 6750,
      "continent": 6751,
      "contractor": 6752,
      "feeling": 6753,
      "Office": 6754,
      "Down": 6755,
      "iation": 6756,
      "promp": 6757,
      "monary": 6758,
      "display": 6759,
      "epis": 6760,
      "valent": 6761,
      "connection": 6762,
      "recently": 6763,
      "Pop": 6764,
      "Sol": 6765,
      "oo": 6766,
      "saw": 6767,
      "coal": 6768,
      "umes": 6769,
      "talk": 6770,
      "hib": 6771,
      "roasting": 6772,
      "110": 6773,
      "Los": 6774,
      "replaced": 6775,
      "coat": 6776,
      "courses": 6777,
      "87": 6778,
      "Non": 6779,
      "umonia": 6780,
      "otherwise": 6781,
      "osen": 6782,
      "novel": 6783,
      "Cho": 6784,
      "maintenance": 6785,
      "Carolina": 6786,
      "define": 6787,
      "chloride": 6788,
      "History": 6789,
      "GA": 6790,
      "vill": 6791,
      "weakness": 6792,
      "Anim": 6793,
      "news": 6794,
      "accum": 6795,
      "wrong": 6796,
      "burning": 6797,
      "significantly": 6798,
      "hon": 6799,
      "imag": 6800,
      "lation": 6801,
      "comfort": 6802,
      "painful": 6803,
      "postings": 6804,
      "facility": 6805,
      "indicates": 6806,
      "tools": 6807,
      "healing": 6808,
      "las": 6809,
      "rine": 6810,
      "sites": 6811,
      "chance": 6812,
      "ulate": 6813,
      "amus": 6814,
      "sole": 6815,
      "string": 6816,
      "dietary": 6817,
      "variation": 6818,
      "Roast": 6819,
      "certific": 6820,
      "Civil": 6821,
      "Tra": 6822,
      "gang": 6823,
      "accounts": 6824,
      "changing": 6825,
      "sizes": 6826,
      "serves": 6827,
      "virt": 6828,
      "axon": 6829,
      "Moon": 6830,
      "LA": 6831,
      "Long": 6832,
      "Mot": 6833,
      "Using": 6834,
      "smell": 6835,
      "command": 6836,
      "capt": 6837,
      "associate": 6838,
      "productive": 6839,
      "branches": 6840,
      "spectrum": 6841,
      "achieve": 6842,
      "Introduction": 6843,
      "Pers": 6844,
      "SC": 6845,
      "random": 6846,
      "zip": 6847,
      "defect": 6848,
      "university": 6849,
      "oting": 6850,
      "tips": 6851,
      "pox": 6852,
      "showing": 6853,
      "holds": 6854,
      "calculate": 6855,
      "successful": 6856,
      "adjective": 6857,
      "Dif": 6858,
      "dated": 6859,
      "lemon": 6860,
      "beta": 6861,
      "construct": 6862,
      "exists": 6863,
      "illu": 6864,
      "apple": 6865,
      "antioxid": 6866,
      "sensitive": 6867,
      "dishes": 6868,
      "translation": 6869,
      "push": 6870,
      "isco": 6871,
      "exclus": 6872,
      "ears": 6873,
      "colleges": 6874,
      "Where": 6875,
      "Hydro": 6876,
      "ologist": 6877,
      "Berlin": 6878,
      "survive": 6879,
      "hun": 6880,
      "peas": 6881,
      "agers": 6882,
      "breaks": 6883,
      "objects": 6884,
      "TION": 6885,
      "mechanical": 6886,
      "mutation": 6887,
      "psychology": 6888,
      "Business": 6889,
      "Tri": 6890,
      "ais": 6891,
      "gical": 6892,
      "mur": 6893,
      "sty": 6894,
      "demon": 6895,
      "moved": 6896,
      "jewel": 6897,
      "wanted": 6898,
      "younger": 6899,
      "sports": 6900,
      "eukaryotic": 6901,
      "Louis": 6902,
      "Page": 6903,
      "staff": 6904,
      "brought": 6905,
      "nothing": 6906,
      "dried": 6907,
      "Admin": 6908,
      "decision": 6909,
      "communication": 6910,
      "97": 6911,
      "Pot": 6912,
      "fle": 6913,
      "pite": 6914,
      "prec": 6915,
      "transition": 6916,
      "plane": 6917,
      "Typically": 6918,
      "modified": 6919,
      "fabric": 6920,
      "aluminum": 6921,
      "Hep": 6922,
      "SS": 6923,
      "Sever": 6924,
      "],": 6925,
      "itals": 6926,
      "cia": 6927,
      "germin": 6928,
      "originated": 6929,
      "molecular": 6930,
      "standards": 6931,
      "rarely": 6932,
      "volcanoes": 6933,
      "Zealand": 6934,
      "Bal": 6935,
      "Fort": 6936,
      "atitis": 6937,
      "forces": 6938,
      "cher": 6939,
      "poons": 6940,
      "ING": 6941,
      "decid": 6942,
      "collected": 6943,
      "Special": 6944,
      "industrial": 6945,
      "oultry": 6946,
      "!!": 6947,
      "Whe": 6948,
      "sort": 6949,
      "tland": 6950,
      "wax": 6951,
      "refund": 6952,
      "stages": 6953,
      "loose": 6954,
      "prop": 6955,
      "superior": 6956,
      "links": 6957,
      "trying": 6958,
      "Auto": 6959,
      "breakdown": 6960,
      "sufficient": 6961,
      "princi": 6962,
      "executive": 6963,
      "umatoid": 6964,
      "aline": 6965,
      "ody": 6966,
      "tyl": 6967,
      "Star": 6968,
      "sky": 6969,
      "placing": 6970,
      "Southern": 6971,
      "harmful": 6972,
      "dress": 6973,
      "ultr": 6974,
      "promin": 6975,
      "unk": 6976,
      "anyone": 6977,
      "icellular": 6978,
      "marks": 6979,
      "Well": 6980,
      "expand": 6981,
      "operation": 6982,
      "Britain": 6983,
      "sugges": 6984,
      "administr": 6985,
      "Sam": 6986,
      "rus": 6987,
      "alter": 6988,
      "doses": 6989,
      "agency": 6990,
      "venue": 6991,
      "iana": 6992,
      "marine": 6993,
      "opened": 6994,
      "Salaries": 6995,
      "carbohydrate": 6996,
      "categories": 6997,
      "aughter": 6998,
      "occasion": 6999,
      "BS": 7000,
      "enters": 7001,
      "145": 7002,
      "situation": 7003,
      "embeddings": 7004,
      "mentioned": 7005,
      "gluten": 7006,
      "uous": 7007,
      "yog": 7008,
      "attract": 7009,
      "igan": 7010,
      "resol": 7011,
      "shar": 7012,
      "garage": 7013,
      "resting": 7014,
      "officer": 7015,
      "therapist": 7016,
      "offered": 7017,
      "Costs": 7018,
      "claims": 7019,
      "absorb": 7020,
      "allergic": 7021,
      "detailed": 7022,
      "Mu": 7023,
      "ec": 7024,
      "genital": 7025,
      "experienced": 7026,
      "Syn": 7027,
      "extended": 7028,
      "moisture": 7029,
      "technique": 7030,
      "decide": 7031,
      "retirement": 7032,
      "Mad": 7033,
      "lact": 7034,
      "pitch": 7035,
      "enger": 7036,
      "adop": 7037,
      "2016": 7038,
      "nov": 7039,
      "marrow": 7040,
      "vania": 7041,
      "procedures": 7042,
      "Rating": 7043,
      "jour": 7044,
      "tts": 7045,
      "wife": 7046,
      "grand": 7047,
      "colour": 7048,
      "mari": 7049,
      "relations": 7050,
      "mening": 7051,
      "Early": 7052,
      "infectious": 7053,
      "patterns": 7054,
      "breathing": 7055,
      "Census": 7056,
      "Den": 7057,
      "ji": 7058,
      "origins": 7059,
      "deriv": 7060,
      "impul": 7061,
      "critical": 7062,
      "mucus": 7063,
      "label": 7064,
      "calculated": 7065,
      "huge": 7066,
      "corresponding": 7067,
      "William": 7068,
      "bage": 7069,
      "tap": 7070,
      "tobac": 7071,
      "stiff": 7072,
      "domen": 7073,
      "fles": 7074,
      "rensic": 7075,
      "pipe": 7076,
      "vinyl": 7077,
      "Du": 7078,
      "PT": 7079,
      "retic": 7080,
      "alt": 7081,
      "cham": 7082,
      "conven": 7083,
      "tee": 7084,
      "percentile": 7085,
      "steam": 7086,
      "investment": 7087,
      "technician": 7088,
      "Assist": 7089,
      "Age": 7090,
      "LI": 7091,
      "MR": 7092,
      "Main": 7093,
      "sustain": 7094,
      "spending": 7095,
      "Christ": 7096,
      "panel": 7097,
      "Group": 7098,
      "absorption": 7099,
      "Scott": 7100,
      "obtained": 7101,
      "fairly": 7102,
      "puppy": 7103,
      "shorter": 7104,
      "Tor": 7105,
      "wing": 7106,
      "eric": 7107,
      "ission": 7108,
      "chall": 7109,
      "abdomen": 7110,
      "somal": 7111,
      "payments": 7112,
      "solute": 7113,
      "bowel": 7114,
      "nausea": 7115,
      "61": 7116,
      "Bacter": 7117,
      "Ob": 7118,
      "elic": 7119,
      "ellow": 7120,
      "bloodstream": 7121,
      "volt": 7122,
      "description": 7123,
      "damaged": 7124,
      "slowly": 7125,
      "situated": 7126,
      "Children": 7127,
      "comparison": 7128,
      "recessive": 7129,
      "57": 7130,
      "EE": 7131,
      "Oh": 7132,
      "clop": 7133,
      "sick": 7134,
      "sperm": 7135,
      "yer": 7136,
      "astr": 7137,
      "peace": 7138,
      "achuse": 7139,
      "rows": 7140,
      "athyroid": 7141,
      "BI": 7142,
      "incorpor": 7143,
      "itan": 7144,
      "acet": 7145,
      "idi": 7146,
      "driver": 7147,
      "steaks": 7148,
      "represented": 7149,
      "assistant": 7150,
      "respectively": 7151,
      "princip": 7152,
      "Psy": 7153,
      "Tw": 7154,
      "tles": 7155,
      "chick": 7156,
      "ulations": 7157,
      "agents": 7158,
      "coron": 7159,
      "blocks": 7160,
      "architecture": 7161,
      "ranked": 7162,
      "Bake": 7163,
      "onin": 7164,
      "attribut": 7165,
      "extensive": 7166,
      "bra": 7167,
      "2003": 7168,
      "Cont": 7169,
      "representation": 7170,
      "frequent": 7171,
      "nationwide": 7172,
      "rupt": 7173,
      "belongs": 7174,
      "Baby": 7175,
      "Cop": 7176,
      "lum": 7177,
      "mn": 7178,
      "rag": 7179,
      "icted": 7180,
      "extr": 7181,
      "phyl": 7182,
      "amps": 7183,
      "ulture": 7184,
      "Alaska": 7185,
      "oils": 7186,
      "converted": 7187,
      "selected": 7188,
      "igration": 7189,
      "metabolic": 7190,
      "database": 7191,
      "Microsoft": 7192,
      "achusetts": 7193,
      "FC": 7194,
      "Fer": 7195,
      "Hen": 7196,
      "Rh": 7197,
      "Sing": 7198,
      "lava": 7199,
      "stars": 7200,
      "decor": 7201,
      "perhaps": 7202,
      "cious": 7203,
      "literature": 7204,
      "giant": 7205,
      "cultural": 7206,
      "Family": 7207,
      "Pennsyl": 7208,
      "circuit": 7209,
      "horses": 7210,
      "wik": 7211,
      "Instead": 7212,
      "Thomas": 7213,
      "matically": 7214,
      "definite": 7215,
      "plasmic": 7216,
      "turkey": 7217,
      "guarante": 7218,
      ".”": 7219,
      "92": 7220,
      "Viet": 7221,
      "dre": 7222,
      "fare": 7223,
      "jug": 7224,
      "iled": 7225,
      "haz": 7226,
      "19th": 7227,
      "Form": 7228,
      "Unlike": 7229,
      "helpful": 7230,
      "Medicare": 7231,
      "poisoning": 7232,
      "beyond": 7233,
      "Bill": 7234,
      "GH": 7235,
      "MT": 7236,
      "ini": 7237,
      "infer": 7238,
      "irub": 7239,
      "ighter": 7240,
      "cyst": 7241,
      "calor": 7242,
      "2004": 7243,
      "largely": 7244,
      "manufacturing": 7245,
      "sulf": 7246,
      "Inc": 7247,
      "duck": 7248,
      "Ange": 7249,
      "passes": 7250,
      "recovery": 7251,
      "prescribed": 7252,
      "Education": 7253,
      "Ele": 7254,
      "hence": 7255,
      "leaving": 7256,
      "coverage": 7257,
      "chains": 7258,
      "trie": 7259,
      "cris": 7260,
      "insula": 7261,
      "Heat": 7262,
      "Section": 7263,
      "axis": 7264,
      "Franc": 7265,
      "returns": 7266,
      "Massachusetts": 7267,
      "750": 7268,
      "convent": 7269,
      "patent": 7270,
      "raise": 7271,
      "download": 7272,
      "worldwide": 7273,
      "Below": 7274,
      "teacher": 7275,
      "clerosis": 7276,
      "Arabic": 7277,
      "suggests": 7278,
      "FI": 7279,
      "Next": 7280,
      "bite": 7281,
      "fusion": 7282,
      "rack": 7283,
      "encoder": 7284,
      "cow": 7285,
      "lycer": 7286,
      "igue": 7287,
      "premium": 7288,
      "rowave": 7289,
      "painting": 7290,
      "marked": 7291,
      "untary": 7292,
      "distinguish": 7293,
      "ranean": 7294,
      "Py": 7295,
      "lav": 7296,
      "loma": 7297,
      "capable": 7298,
      "borne": 7299,
      "holding": 7300,
      "separated": 7301,
      "carried": 7302,
      "lymphatic": 7303,
      "Description": 7304,
      "continuous": 7305,
      "Direct": 7306,
      "inherited": 7307,
      "antibiotics": 7308,
      "Pennsylvania": 7309,
      ".]": 7310,
      "Making": 7311,
      "Sign": 7312,
      "Tun": 7313,
      "gift": 7314,
      "pages": 7315,
      "poultry": 7316,
      "spots": 7317,
      "muscular": 7318,
      "signed": 7319,
      "physi": 7320,
      "consume": 7321,
      "anesthe": 7322,
      "television": 7323,
      "married": 7324,
      "Speci": 7325,
      "cou": 7326,
      "dil": 7327,
      "snow": 7328,
      "ilar": 7329,
      "sore": 7330,
      "juana": 7331,
      "wrap": 7332,
      "lateral": 7333,
      "Super": 7334,
      "abundant": 7335,
      "Nut": 7336,
      "PO": 7337,
      "dden": 7338,
      "tian": 7339,
      "Stud": 7340,
      "Columb": 7341,
      "didn": 7342,
      "thinking": 7343,
      "default": 7344,
      "pneumonia": 7345,
      "Bir": 7346,
      "Call": 7347,
      "SO": 7348,
      "ying": 7349,
      "conserv": 7350,
      "afford": 7351,
      "transcription": 7352,
      "attacks": 7353,
      "terminal": 7354,
      "writer": 7355,
      "invas": 7356,
      "phalt": 7357,
      "delivery": 7358,
      "jewelry": 7359,
      "Mart": 7360,
      "Wall": 7361,
      "nd": 7362,
      "proposed": 7363,
      "wealth": 7364,
      "turns": 7365,
      "Carbon": 7366,
      "microsco": 7367,
      "carrier": 7368,
      "excessive": 7369,
      "Russia": 7370,
      "irubin": 7371,
      "Av": 7372,
      "ders": 7373,
      "tren": 7374,
      "erts": 7375,
      "error": 7376,
      "prokary": 7377,
      "peak": 7378,
      "brid": 7379,
      "background": 7380,
      "develops": 7381,
      "handle": 7382,
      "predict": 7383,
      "collagen": 7384,
      "humidity": 7385,
      "thickness": 7386,
      "Table": 7387,
      "soup": 7388,
      "ciation": 7389,
      "optic": 7390,
      "berg": 7391,
      "cars": 7392,
      "counsel": 7393,
      "closer": 7394,
      "leader": 7395,
      "consumer": 7396,
      "vertebrates": 7397,
      "capillaries": 7398,
      "Hot": 7399,
      "Nucle": 7400,
      "Pur": 7401,
      "aqu": 7402,
      "rac": 7403,
      "arrange": 7404,
      "otro": 7405,
      "phere": 7406,
      "blind": 7407,
      "fibr": 7408,
      "factory": 7409,
      "society": 7410,
      "Board": 7411,
      "boiling": 7412,
      "breeds": 7413,
      "agencies": 7414,
      "Amendment": 7415,
      "Number": 7416,
      "Sil": 7417,
      "Sky": 7418,
      "ja": 7419,
      "ko": 7420,
      "toler": 7421,
      "prot": 7422,
      "omy": 7423,
      "osing": 7424,
      "surpr": 7425,
      "Second": 7426,
      "movements": 7427,
      "fourth": 7428,
      "immun": 7429,
      "golden": 7430,
      "eligible": 7431,
      "Bud": 7432,
      "Govern": 7433,
      "MENT": 7434,
      "Sat": 7435,
      "tat": 7436,
      "anus": 7437,
      "align": 7438,
      "towards": 7439,
      "acchar": 7440,
      "cogn": 7441,
      "advanced": 7442,
      "trim": 7443,
      "Those": 7444,
      "compute": 7445,
      "structural": 7446,
      "regulate": 7447,
      "joined": 7448,
      "surgeon": 7449,
      "84": 7450,
      "Rights": 7451,
      "sli": 7452,
      "creat": 7453,
      "somewhat": 7454,
      "1980": 7455,
      "depth": 7456,
      "herb": 7457,
      "projects": 7458,
      "Roy": 7459,
      "volcanic": 7460,
      "voice": 7461,
      "accepted": 7462,
      "ribose": 7463,
      "favorite": 7464,
      "Camp": 7465,
      "sounds": 7466,
      "inhibit": 7467,
      "appoint": 7468,
      "Insurance": 7469,
      "1960": 7470,
      "2002": 7471,
      "contributions": 7472,
      "frost": 7473,
      "Mountains": 7474,
      "exception": 7475,
      "circulation": 7476,
      "techniques": 7477,
      "possibly": 7478,
      "Hawaii": 7479,
      "mitochondria": 7480,
      "Hepatitis": 7481,
      "AP": 7482,
      "Pass": 7483,
      "encies": 7484,
      "perce": 7485,
      "caffe": 7486,
      "elle": 7487,
      "worker": 7488,
      "generated": 7489,
      "homeowners": 7490,
      "football": 7491,
      "statistics": 7492,
      "SI": 7493,
      "wound": 7494,
      "aria": 7495,
      "hemis": 7496,
      "peare": 7497,
      "peel": 7498,
      "1990": 7499,
      "bling": 7500,
      "colate": 7501,
      "fier": 7502,
      "Example": 7503,
      "audio": 7504,
      "71": 7505,
      "Ener": 7506,
      "ua": 7507,
      "roles": 7508,
      "selection": 7509,
      "resent": 7510,
      "atell": 7511,
      "centuries": 7512,
      "Contin": 7513,
      "closing": 7514,
      "heads": 7515,
      "networks": 7516,
      "mitted": 7517,
      "stuff": 7518,
      "credited": 7519,
      "Therap": 7520,
      "Mem": 7521,
      "ora": 7522,
      "metric": 7523,
      "holiday": 7524,
      "iterranean": 7525,
      "IRS": 7526,
      "clopedia": 7527,
      "UT": 7528,
      "Yellow": 7529,
      "iP": 7530,
      "inated": 7531,
      "weed": 7532,
      "aphy": 7533,
      "carpet": 7534,
      "funds": 7535,
      "healthcare": 7536,
      "tendons": 7537,
      "truck": 7538,
      "philoso": 7539,
      "tumors": 7540,
      "hundreds": 7541,
      "polymerase": 7542,
      "FT": 7543,
      "Job": 7544,
      "dess": 7545,
      "dough": 7546,
      "gender": 7547,
      "heter": 7548,
      "paralle": 7549,
      "surgical": 7550,
      "generic": 7551,
      "certification": 7552,
      "supplement": 7553,
      "tobacco": 7554,
      "Images": 7555,
      "Put": 7556,
      "uation": 7557,
      "coordin": 7558,
      "smallest": 7559,
      "kespeare": 7560,
      "brother": 7561,
      "relevant": 7562,
      "Russian": 7563,
      "Control": 7564,
      "Vietnam": 7565,
      "(/": 7566,
      "ee": 7567,
      "iest": 7568,
      "iPhone": 7569,
      "chrom": 7570,
      "ady": 7571,
      "proxim": 7572,
      "fection": 7573,
      "opha": 7574,
      "longest": 7575,
      "eaten": 7576,
      "Greece": 7577,
      "82": 7578,
      "HPV": 7579,
      "aspects": 7580,
      "belief": 7581,
      "sudden": 7582,
      "quart": 7583,
      "spelling": 7584,
      "carot": 7585,
      "treating": 7586,
      "rising": 7587,
      "ingredient": 7588,
      "labeled": 7589,
      "vinegar": 7590,
      "pension": 7591,
      "vascular": 7592,
      "reh": 7593,
      "atri": 7594,
      "icated": 7595,
      "codes": 7596,
      "grant": 7597,
      "istan": 7598,
      "discount": 7599,
      "obvious": 7600,
      "manage": 7601,
      "photosynthesis": 7602,
      "ancest": 7603,
      "habitat": 7604,
      "crystals": 7605,
      "Clin": 7606,
      "hes": 7607,
      "mRNA": 7608,
      "alo": 7609,
      "ality": 7610,
      "sey": 7611,
      "vectors": 7612,
      "weights": 7613,
      "appeared": 7614,
      "multiply": 7615,
      "automatically": 7616,
      "contribution": 7617,
      "constitu": 7618,
      "dosage": 7619,
      "Energy": 7620,
      "cort": 7621,
      "iated": 7622,
      "pon": 7623,
      "race": 7624,
      "manner": 7625,
      "myel": 7626,
      "familiar": 7627,
      "earns": 7628,
      "headache": 7629,
      "licensed": 7630,
      "issance": 7631,
      "Getty": 7632,
      "Portug": 7633,
      "walking": 7634,
      "nasal": 7635,
      "Standard": 7636,
      "%,": 7637,
      "Ari": 7638,
      "cking": 7639,
      "flies": 7640,
      "pip": 7641,
      "util": 7642,
      "plain": 7643,
      "interior": 7644,
      "registration": 7645,
      "Arch": 7646,
      "smoke": 7647,
      "accounting": 7648,
      "boiled": 7649,
      "pulmonary": 7650,
      "Medicine": 7651,
      "thalamus": 7652,
      "Cha": 7653,
      "oarthritis": 7654,
      "rin": 7655,
      "remodel": 7656,
      "isk": 7657,
      "aro": 7658,
      "told": 7659,
      "gem": 7660,
      "weet": 7661,
      "association": 7662,
      "atomy": 7663,
      "buying": 7664,
      "otype": 7665,
      "Dutch": 7666,
      "Equ": 7667,
      "Ill": 7668,
      "Turn": 7669,
      "dance": 7670,
      "zinc": 7671,
      "urban": 7672,
      "ansas": 7673,
      "oche": 7674,
      "underlying": 7675,
      "statement": 7676,
      "Program": 7677,
      "cutting": 7678,
      "operations": 7679,
      "bigger": 7680,
      "contraction": 7681,
      "boundary": 7682,
      "pharmac": 7683,
      "temporary": 7684,
      "HR": 7685,
      "ML": 7686,
      "Rich": 7687,
      "Word": 7688,
      "meats": 7689,
      "lymp": 7690,
      "chosen": 7691,
      "ollen": 7692,
      "perennial": 7693,
      "exc": 7694,
      "diam": 7695,
      "ultural": 7696,
      "aneous": 7697,
      "neutral": 7698,
      "325": 7699,
      "83": 7700,
      "91": 7701,
      "FDA": 7702,
      "Pain": 7703,
      "eyel": 7704,
      "fence": 7705,
      "vapor": 7706,
      "thaw": 7707,
      "anemia": 7708,
      "orial": 7709,
      "strual": 7710,
      "Stu": 7711,
      "persons": 7712,
      "everyone": 7713,
      "Train": 7714,
      "Mediterranean": 7715,
      "membership": 7716,
      "introduce": 7717,
      "secreted": 7718,
      "harvest": 7719,
      "beauty": 7720,
      "calorie": 7721,
      "Trad": 7722,
      "sine": 7723,
      "erobic": 7724,
      "cha": 7725,
      "constitution": 7726,
      "myth": 7727,
      "Proper": 7728,
      "responsib": 7729,
      "facilities": 7730,
      "trigger": 7731,
      "neighbor": 7732,
      "Cat": 7733,
      "gave": 7734,
      "tore": 7735,
      "divide": 7736,
      "mono": 7737,
      "kingdom": 7738,
      "cheaper": 7739,
      "ashion": 7740,
      "continental": 7741,
      "igrams": 7742,
      "fossil": 7743,
      "rhyth": 7744,
      "Data": 7745,
      "Eastern": 7746,
      "MRI": 7747,
      "Names": 7748,
      "pac": 7749,
      "thigh": 7750,
      "ardi": 7751,
      "edy": 7752,
      "icks": 7753,
      "adi": 7754,
      "Institute": 7755,
      "pleas": 7756,
      "classic": 7757,
      "windows": 7758,
      "secret": 7759,
      "scientists": 7760,
      "resistant": 7761,
      "tumor": 7762,
      "Phys": 7763,
      "advantage": 7764,
      "Fre": 7765,
      "PH": 7766,
      "ki": 7767,
      "annum": 7768,
      "ander": 7769,
      "lyn": 7770,
      "tear": 7771,
      "rental": 7772,
      "cheap": 7773,
      "fibro": 7774,
      "contained": 7775,
      "functioning": 7776,
      "measuring": 7777,
      "involving": 7778,
      "protected": 7779,
      "Treaty": 7780,
      "Shakespeare": 7781,
      "96": 7782,
      "Lim": 7783,
      "Mail": 7784,
      "catch": 7785,
      "unusual": 7786,
      "neous": 7787,
      "shingles": 7788,
      "disk": 7789,
      "homo": 7790,
      "hope": 7791,
      "menstrual": 7792,
      "qualified": 7793,
      "metamorph": 7794,
      "respond": 7795,
      "ictions": 7796,
      "removing": 7797,
      "Services": 7798,
      "dynam": 7799,
      "shapes": 7800,
      "ligaments": 7801,
      "radioactive": 7802,
      "UC": 7803,
      "chief": 7804,
      "lium": 7805,
      "tops": 7806,
      "meeting": 7807,
      "nucleotides": 7808,
      "Nurse": 7809,
      "Profess": 7810,
      "certificate": 7811,
      "Ohio": 7812,
      "IQ": 7813,
      "NO": 7814,
      "Sar": 7815,
      "lest": 7816,
      "arti": 7817,
      "stir": 7818,
      "rote": 7819,
      "meals": 7820,
      "igation": 7821,
      "irt": 7822,
      "fraction": 7823,
      "settle": 7824,
      "traum": 7825,
      "burg": 7826,
      "morph": 7827,
      "rapidly": 7828,
      "81": 7829,
      "Tre": 7830,
      "ked": 7831,
      "xi": 7832,
      "relie": 7833,
      "ayer": 7834,
      "adrenal": 7835,
      "odium": 7836,
      "liest": 7837,
      "Inde": 7838,
      "notes": 7839,
      "spar": 7840,
      "poll": 7841,
      "Tuition": 7842,
      "Heart": 7843,
      "Columbia": 7844,
      "Brown": 7845,
      "Sand": 7846,
      "tick": 7847,
      "reproductive": 7848,
      "isions": 7849,
      "urs": 7850,
      "estone": 7851,
      "quot": 7852,
      "clusion": 7853,
      "ideas": 7854,
      "overtime": 7855,
      "goals": 7856,
      "traits": 7857,
      "greatest": 7858,
      "selling": 7859,
      "Venus": 7860,
      "Government": 7861,
      "HIV": 7862,
      "ores": 7863,
      "anine": 7864,
      "copies": 7865,
      "beet": 7866,
      "follic": 7867,
      "turning": 7868,
      "illustr": 7869,
      "principal": 7870,
      "::": 7871,
      "Em": 7872,
      "dictionary": 7873,
      "lights": 7874,
      "mant": 7875,
      "ugh": 7876,
      "disability": 7877,
      "grey": 7878,
      "chemistry": 7879,
      "airport": 7880,
      "specialty": 7881,
      "Model": 7882,
      "satis": 7883,
      "ligament": 7884,
      "93": 7885,
      "isters": 7886,
      "deoxy": 7887,
      "discourse": 7888,
      "flights": 7889,
      "intended": 7890,
      "fatigue": 7891,
      "gallbladder": 7892,
      "allele": 7893,
      "territory": 7894,
      "occasionally": 7895,
      "Eg": 7896,
      "samp": 7897,
      "moss": 7898,
      "Though": 7899,
      "tested": 7900,
      "freezing": 7901,
      "jump": 7902,
      "Disney": 7903,
      "protective": 7904,
      "correctly": 7905,
      "ologists": 7906,
      "camera": 7907,
      "Gaelic": 7908,
      "prominent": 7909,
      "Ash": 7910,
      "Cover": 7911,
      "Dig": 7912,
      "Ko": 7913,
      "rail": 7914,
      "….": 7915,
      "conut": 7916,
      "exemp": 7917,
      "inea": 7918,
      "20th": 7919,
      "1970": 7920,
      "dra": 7921,
      "Chic": 7922,
      "chocolate": 7923,
      "occurren": 7924,
      "clot": 7925,
      "filing": 7926,
      "filling": 7927,
      "photos": 7928,
      "III": 7929,
      "Whether": 7930,
      "Div": 7931,
      "Ef": 7932,
      "iasis": 7933,
      "onset": 7934,
      "decoder": 7935,
      "stool": 7936,
      "fluids": 7937,
      "freeze": 7938,
      "glomer": 7939,
      "granite": 7940,
      "aorta": 7941,
      "reticulum": 7942,
      "phylum": 7943,
      "Based": 7944,
      "Science": 7945,
      "iture": 7946,
      "fungus": 7947,
      "reducing": 7948,
      "decay": 7949,
      "pasta": 7950,
      "interested": 7951,
      "quantity": 7952,
      "Card": 7953,
      "ek": 7954,
      "rd": 7955,
      "reve": 7956,
      "refin": 7957,
      "beer": 7958,
      "plenty": 7959,
      "oses": 7960,
      "planets": 7961,
      "requirement": 7962,
      "ships": 7963,
      "symbols": 7964,
      "corporation": 7965,
      "previously": 7966,
      "Egypt": 7967,
      "Lit": 7968,
      "Nav": 7969,
      "VP": 7970,
      "eration": 7971,
      "argum": 7972,
      "bearing": 7973,
      "conversion": 7974,
      "enders": 7975,
      "comfor": 7976,
      "compreh": 7977,
      "fundam": 7978,
      "Project": 7979,
      "affecting": 7980,
      "epithelium": 7981,
      "instrument": 7982,
      "Gulf": 7983,
      "evolution": 7984,
      "tens": 7985,
      "vical": 7986,
      "react": 7987,
      "lix": 7988,
      "Three": 7989,
      "mony": 7990,
      "bloom": 7991,
      "server": 7992,
      "cran": 7993,
      "Process": 7994,
      "pediatric": 7995,
      "intestines": 7996,
      "thyroidism": 7997,
      "belt": 7998,
      "drinks": 7999,
      "epithelial": 8000,
      "zona": 8001,
      "emotional": 8002,
      "coronary": 8003,
      "Gal": 8004,
      "bought": 8005,
      "eper": 8006,
      "gross": 8007,
      "pir": 8008,
      "tus": 8009,
      "vas": 8010,
      "wrote": 8011,
      "err": 8012,
      "onion": 8013,
      "uris": 8014,
      "parathyroid": 8015,
      "hole": 8016,
      "unders": 8017,
      "holders": 8018,
      "sunlight": 8019,
      "regularly": 8020,
      "Valley": 8021,
      "complications": 8022,
      "marijuana": 8023,
      "Fish": 8024,
      "Mel": 8025,
      "oli": 8026,
      "unknown": 8027,
      "award": 8028,
      "reflex": 8029,
      "views": 8030,
      "medicines": 8031,
      "bacon": 8032,
      "tells": 8033,
      "tructure": 8034,
      "nutrient": 8035,
      "Guide": 8036,
      "contracts": 8037,
      "economy": 8038,
      "Der": 8039,
      "vince": 8040,
      "espan": 8041,
      "oute": 8042,
      "rots": 8043,
      "coating": 8044,
      "beats": 8045,
      "ultim": 8046,
      "perts": 8047,
      "trache": 8048,
      "apping": 8049,
      "switch": 8050,
      "tellig": 8051,
      "extent": 8052,
      "crystal": 8053,
      "houses": 8054,
      "debt": 8055,
      "precipitation": 8056,
      "Bost": 8057,
      "daughter": 8058,
      "lists": 8059,
      "anas": 8060,
      "alve": 8061,
      "illet": 8062,
      "amy": 8063,
      "pets": 8064,
      "pept": 8065,
      "ichigan": 8066,
      "brick": 8067,
      "pread": 8068,
      "skill": 8069,
      "pays": 8070,
      "reduction": 8071,
      "AND": 8072,
      "Lyme": 8073,
      "Summary": 8074,
      "carbons": 8075,
      "David": 8076,
      "Ce": 8077,
      "Land": 8078,
      "Rena": 8079,
      "nice": 8080,
      "wolf": 8081,
      "icious": 8082,
      "hemat": 8083,
      "sections": 8084,
      "amic": 8085,
      "empty": 8086,
      "playing": 8087,
      "receiving": 8088,
      "Plan": 8089,
      "potentially": 8090,
      "Corpor": 8091,
      "Scotland": 8092,
      "tenderloin": 8093,
      "combine": 8094,
      "progress": 8095,
      "Fire": 8096,
      "Lab": 8097,
      "Mi": 8098,
      "Multi": 8099,
      "reproduction": 8100,
      "prostate": 8101,
      "ambig": 8102,
      "hael": 8103,
      "partners": 8104,
      "desc": 8105,
      "170": 8106,
      "bench": 8107,
      "microwave": 8108,
      "steroid": 8109,
      "employers": 8110,
      "Types": 8111,
      "teachers": 8112,
      "exceed": 8113,
      "regardless": 8114,
      "diagnosed": 8115,
      "segment": 8116,
      "deposit": 8117,
      "embryo": 8118,
      "antigen": 8119,
      "Renaissance": 8120,
      "73": 8121,
      "OH": 8122,
      "Search": 8123,
      "Zip": 8124,
      "tical": 8125,
      "itage": 8126,
      "liability": 8127,
      "fewer": 8128,
      "undergraduate": 8129,
      "leaders": 8130,
      "magnetic": 8131,
      "continued": 8132,
      "Oldest": 8133,
      "administration": 8134,
      "preparation": 8135,
      "arynx": 8136,
      "Boston": 8137,
      "ala": 8138,
      "absolute": 8139,
      "liament": 8140,
      "sharing": 8141,
      "lined": 8142,
      "Coast": 8143,
      "inkle": 8144,
      "Level": 8145,
      "Manager": 8146,
      "extends": 8147,
      "snake": 8148,
      "junct": 8149,
      "Diet": 8150,
      "Current": 8151,
      "technical": 8152,
      "Angeles": 8153,
      "Big": 8154,
      "GE": 8155,
      "Oreg": 8156,
      "hire": 8157,
      "pull": 8158,
      "thumb": 8159,
      "anda": 8160,
      "covery": 8161,
      "cement": 8162,
      "liance": 8163,
      "elected": 8164,
      "circle": 8165,
      "bottle": 8166,
      "magma": 8167,
      "aerobic": 8168,
      "ophagus": 8169,
      "01": 8170,
      "AU": 8171,
      "Found": 8172,
      "Show": 8173,
      "lion": 8174,
      "asphalt": 8175,
      "stances": 8176,
      "shared": 8177,
      "phic": 8178,
      "centers": 8179,
      "criminal": 8180,
      "versions": 8181,
      "Newest": 8182,
      "officers": 8183,
      "cataly": 8184,
      "practices": 8185,
      "absorbed": 8186,
      "Mountain": 8187,
      "Causes": 8188,
      "cabine": 8189,
      "vacu": 8190,
      "',": 8191,
      "Aust": 8192,
      "Log": 8193,
      "metr": 8194,
      "vein": 8195,
      "somewhere": 8196,
      "saliva": 8197,
      "visions": 8198,
      "rays": 8199,
      "interesting": 8200,
      "Chicago": 8201,
      "Ha": 8202,
      "fashion": 8203,
      "alysis": 8204,
      "seiz": 8205,
      "diverse": 8206,
      "calls": 8207,
      "cylin": 8208,
      "observ": 8209,
      "flooring": 8210,
      "fuels": 8211,
      "nucleotide": 8212,
      "cotton": 8213,
      "Scottish": 8214,
      "Arizona": 8215,
      "%).": 8216,
      "Ig": 8217,
      "jaw": 8218,
      "advis": 8219,
      "ums": 8220,
      "shallow": 8221,
      "sym": 8222,
      "printer": 8223,
      "surfaces": 8224,
      "Ford": 8225,
      "cups": 8226,
      "hotel": 8227,
      "enna": 8228,
      "Management": 8229,
      "Charles": 8230,
      "DO": 8231,
      "HO": 8232,
      "Women": 8233,
      "aque": 8234,
      "iso": 8235,
      "nels": 8236,
      "tends": 8237,
      "millions": 8238,
      "USB": 8239,
      "encyclopedia": 8240,
      "hydrox": 8241,
      "necessarily": 8242,
      "latest": 8243,
      "authority": 8244,
      "bilirubin": 8245,
      "gastrointestinal": 8246,
      "GI": 8247,
      "Mill": 8248,
      "Sah": 8249,
      "inity": 8250,
      "ede": 8251,
      "meant": 8252,
      "unlike": 8253,
      "resource": 8254,
      "rivers": 8255,
      "nostic": 8256,
      "organizations": 8257,
      "priv": 8258,
      "greenhouse": 8259,
      "tablets": 8260,
      "cards": 8261,
      "THE": 8262,
      "literally": 8263,
      "historical": 8264,
      "94": 8265,
      "PP": 8266,
      "Tha": 8267,
      "mang": 8268,
      "nails": 8269,
      "igo": 8270,
      "Head": 8271,
      "electronic": 8272,
      "severity": 8273,
      "binding": 8274,
      "zyg": 8275,
      "barrier": 8276,
      "smoking": 8277,
      "ovulation": 8278,
      "expressed": 8279,
      "boundaries": 8280,
      "BB": 8281,
      "Langu": 8282,
      "Pep": 8283,
      "hus": 8284,
      "pil": 8285,
      "acic": 8286,
      "utter": 8287,
      "cake": 8288,
      "boat": 8289,
      "solutions": 8290,
      "accident": 8291,
      "manufactured": 8292,
      "vehicles": 8293,
      "hospitals": 8294,
      "weighs": 8295,
      "client": 8296,
      "relief": 8297,
      "contaminated": 8298,
      "routine": 8299,
      "Occup": 8300,
      "Cro": 8301,
      "Nep": 8302,
      "ilit": 8303,
      "abul": 8304,
      "ulus": 8305,
      "corne": 8306,
      "prey": 8307,
      "2001": 8308,
      "germ": 8309,
      "applies": 8310,
      "Democr": 8311,
      "announ": 8312,
      "lifetime": 8313,
      "Often": 8314,
      "diagnose": 8315,
      "injuries": 8316,
      "entirely": 8317,
      "confused": 8318,
      "gallons": 8319,
      "difficulty": 8320,
      "discuss": 8321,
      "consumers": 8322,
      "fracture": 8323,
      "Court": 8324,
      "voltage": 8325,
      "parallel": 8326,
      "Cr": 8327,
      "Ham": 8328,
      "ION": 8329,
      "Mark": 8330,
      "Swed": 8331,
      "ulcers": 8332,
      "sim": 8333,
      "upus": 8334,
      "skillet": 8335,
      "protects": 8336,
      "clothing": 8337,
      "importance": 8338,
      "horiz": 8339,
      "viet": 8340,
      "cultures": 8341,
      "stays": 8342,
      "texts": 8343,
      "nutritional": 8344,
      "detected": 8345,
      "Francisco": 8346,
      "Native": 8347,
      "evol": 8348,
      "enroll": 8349,
      "amer": 8350,
      "worn": 8351,
      "forensic": 8352,
      "dram": 8353,
      "basket": 8354,
      "Season": 8355,
      "synap": 8356,
      "balan": 8357,
      "learned": 8358,
      "determines": 8359,
      "Hyper": 8360,
      "pictures": 8361,
      "antibiotic": 8362,
      "suitable": 8363,
      "Disease": 8364,
      "Oste": 8365,
      "bour": 8366,
      "games": 8367,
      "clay": 8368,
      "opor": 8369,
      "berty": 8370,
      "aven": 8371,
      "mucous": 8372,
      "foundation": 8373,
      "installing": 8374,
      "substanti": 8375,
      "wheel": 8376,
      "tuna": 8377,
      "destination": 8378,
      "Muscle": 8379,
      "Stock": 8380,
      "brief": 8381,
      "Natural": 8382,
      "Related": 8383,
      "Oregon": 8384,
      "Dol": 8385,
      "Lic": 8386,
      "gap": 8387,
      "advert": 8388,
      "affic": 8389,
      "curve": 8390,
      "specified": 8391,
      "director": 8392,
      "profile": 8393,
      "Frank": 8394,
      "kilo": 8395,
      "residential": 8396,
      "technicians": 8397,
      "pods": 8398,
      "withdrawal": 8399,
      "partial": 8400,
      "AM": 8401,
      "Flo": 8402,
      "Max": 8403,
      "rul": 8404,
      "sest": 8405,
      "edom": 8406,
      "lder": 8407,
      "ifies": 8408,
      "disci": 8409,
      "stems": 8410,
      "organized": 8411,
      "attor": 8412,
      "turned": 8413,
      "sensation": 8414,
      "buildings": 8415,
      "ctomy": 8416,
      "endoplasmic": 8417,
      "advance": 8418,
      "Empire": 8419,
      "Paul": 8420,
      "schedule": 8421,
      "recipes": 8422,
      "oporosis": 8423,
      "Im": 8424,
      "nav": 8425,
      "rating": 8426,
      "encing": 8427,
      "ications": 8428,
      "agric": 8429,
      "upiter": 8430,
      "acetyl": 8431,
      "emphas": 8432,
      "Book": 8433,
      "rabbit": 8434,
      "emergency": 8435,
      "pigment": 8436,
      "aj": 8437,
      "emo": 8438,
      "oce": 8439,
      "encour": 8440,
      "heard": 8441,
      "keys": 8442,
      "diver": 8443,
      "artist": 8444,
      "parame": 8445,
      "ipolar": 8446,
      "transformer": 8447,
      "drops": 8448,
      "cuis": 8449,
      "consumed": 8450,
      "determining": 8451,
      "banks": 8452,
      "regarding": 8453,
      "campus": 8454,
      "abbreviation": 8455,
      "LDL": 8456,
      "ventricle": 8457,
      "Certified": 8458,
      "phenomenon": 8459,
      "demonstr": 8460,
      "yogurt": 8461,
      "comfortable": 8462,
      "Oper": 8463,
      "Tim": 8464,
      "kWh": 8465,
      "pian": 8466,
      "yes": 8467,
      "themat": 8468,
      "ulcer": 8469,
      "parag": 8470,
      "cytes": 8471,
      "crack": 8472,
      "anning": 8473,
      "leton": 8474,
      "uctose": 8475,
      "connects": 8476,
      "Indiana": 8477,
      "messages": 8478,
      "duties": 8479,
      "waters": 8480,
      "adopted": 8481,
      "Michigan": 8482,
      "ulose": 8483,
      "alia": 8484,
      "chapter": 8485,
      "lipo": 8486,
      "expert": 8487,
      "answers": 8488,
      "strict": 8489,
      "benz": 8490,
      "maintaining": 8491,
      "corporate": 8492,
      "repeated": 8493,
      "traditionally": 8494,
      "restaurant": 8495,
      "abulary": 8496,
      "DC": 8497,
      "Jose": 8498,
      "Pet": 8499,
      "gam": 8500,
      "rant": 8501,
      "udo": 8502,
      "asound": 8503,
      "semes": 8504,
      "moment": 8505,
      "idae": 8506,
      "advice": 8507,
      "sures": 8508,
      "umbs": 8509,
      "plug": 8510,
      "tape": 8511,
      "prevents": 8512,
      "overnor": 8513,
      "cervical": 8514,
      "neurotransmit": 8515,
      "session": 8516,
      "sacchar": 8517,
      "quarters": 8518,
      "Power": 8519,
      "**": 8520,
      "Less": 8521,
      "Public": 8522,
      "Why": 8523,
      "dou": 8524,
      "sci": 8525,
      "retrie": 8526,
      "stack": 8527,
      "forced": 8528,
      "uts": 8529,
      "clar": 8530,
      "thane": 8531,
      "milli": 8532,
      "crime": 8533,
      "logic": 8534,
      "closest": 8535,
      "referring": 8536,
      "swollen": 8537,
      "assume": 8538,
      "Consider": 8539,
      "stroke": 8540,
      "Asian": 8541,
      "Dry": 8542,
      "Nic": 8543,
      "heim": 8544,
      "acin": 8545,
      "estrogen": 8546,
      "centre": 8547,
      "finished": 8548,
      "salts": 8549,
      "identical": 8550,
      "ogly": 8551,
      "1996": 8552,
      "ibbean": 8553,
      "crops": 8554,
      "tubes": 8555,
      "Turkey": 8556,
      "department": 8557,
      "Ever": 8558,
      "Mix": 8559,
      "Som": 8560,
      "gather": 8561,
      "wi": 8562,
      "thri": 8563,
      "inject": 8564,
      "losis": 8565,
      "earliest": 8566,
      "opathy": 8567,
      "itions": 8568,
      "subsequ": 8569,
      "grammar": 8570,
      "rye": 8571,
      "identity": 8572,
      "mustard": 8573,
      "directed": 8574,
      "Account": 8575,
      "equation": 8576,
      "Desert": 8577,
      "earthqu": 8578,
      "mechanism": 8579,
      "Employ": 8580,
      "mushrooms": 8581,
      "conventional": 8582,
      "FA": 8583,
      "Jupiter": 8584,
      "ience": 8585,
      "tough": 8586,
      "onions": 8587,
      "orer": 8588,
      "unciation": 8589,
      "trail": 8590,
      "exclu": 8591,
      "basically": 8592,
      "Real": 8593,
      "childhood": 8594,
      "milligrams": 8595,
      "suming": 8596,
      "juices": 8597,
      "ptide": 8598,
      "Dictionary": 8599,
      "Press": 8600,
      "Us": 8601,
      "inction": 8602,
      "injection": 8603,
      "erated": 8604,
      "arranged": 8605,
      "assets": 8606,
      "entities": 8607,
      "semb": 8608,
      "abil": 8609,
      "otine": 8610,
      "tet": 8611,
      "bris": 8612,
      "ipation": 8613,
      "efficiency": 8614,
      "cuts": 8615,
      "facing": 8616,
      "nearby": 8617,
      "Isra": 8618,
      "graphical": 8619,
      "ADVER": 8620,
      "triglycer": 8621,
      "savings": 8622,
      "vaginal": 8623,
      "Hem": 8624,
      "Light": 8625,
      "MB": 8626,
      "Ros": 8627,
      "lamin": 8628,
      "satell": 8629,
      "zil": 8630,
      "prob": 8631,
      "sip": 8632,
      "cla": 8633,
      "creation": 8634,
      "holes": 8635,
      "Andre": 8636,
      "soda": 8637,
      "clients": 8638,
      "vocabulary": 8639,
      "opause": 8640,
      "false": 8641,
      "Kent": 8642,
      "pent": 8643,
      "ined": 8644,
      "infr": 8645,
      "esophagus": 8646,
      "verages": 8647,
      "folder": 8648,
      "antibody": 8649,
      "operate": 8650,
      "TISE": 8651,
      "sylls": 8652,
      "Connect": 8653,
      "fibrous": 8654,
      "Tro": 8655,
      "bid": 8656,
      "lers": 8657,
      "atus": 8658,
      "oring": 8659,
      "enh": 8660,
      "uration": 8661,
      "atever": 8662,
      "appre": 8663,
      "noted": 8664,
      "presented": 8665,
      "equals": 8666,
      "variations": 8667,
      "sensit": 8668,
      "cooling": 8669,
      "nurses": 8670,
      "hypothalamus": 8671,
      "surrounded": 8672,
      "Colorado": 8673,
      "ADVERTISE": 8674,
      "ADVERTISEMENT": 8675,
      "Smo": 8676,
      "Ul": 8677,
      "Vi": 8678,
      "traffic": 8679,
      "intermedi": 8680,
      "simplest": 8681,
      "toxin": 8682,
      "continues": 8683,
      "chloro": 8684,
      "rheumatoid": 8685,
      "vertical": 8686,
      "caffeine": 8687,
      "comprehensive": 8688,
      "Bri": 8689,
      "Fall": 8690,
      "Know": 8691,
      "”,": 8692,
      "enza": 8693,
      "asy": 8694,
      "igneous": 8695,
      "predominant": 8696,
      "destru": 8697,
      "breaking": 8698,
      "muco": 8699,
      "reaching": 8700,
      "representing": 8701,
      "engineers": 8702,
      "Johnson": 8703,
      "lifespan": 8704,
      "credits": 8705,
      "Motor": 8706,
      "inferior": 8707,
      "Four": 8708,
      "NY": 8709,
      "SH": 8710,
      "TB": 8711,
      "tood": 8712,
      "accompan": 8713,
      "fortun": 8714,
      "chor": 8715,
      "termed": 8716,
      "uted": 8717,
      "essentially": 8718,
      "Ancient": 8719,
      "temporal": 8720,
      "police": 8721,
      "ictor": 8722,
      "keeps": 8723,
      "manufacturer": 8724,
      "understood": 8725,
      "Eth": 8726,
      "Hun": 8727,
      "Rate": 8728,
      "ras": 8729,
      "mood": 8730,
      "uncommon": 8731,
      "Income": 8732,
      "articles": 8733,
      "synon": 8734,
      "centi": 8735,
      "intense": 8736,
      "checks": 8737,
      "singer": 8738,
      "gradually": 8739,
      "decisions": 8740,
      "Paris": 8741,
      "consistent": 8742,
      "occupation": 8743,
      "lamb": 8744,
      "Henry": 8745,
      "bine": 8746,
      "yards": 8747,
      "het": 8748,
      "laid": 8749,
      "providers": 8750,
      "Caribbean": 8751,
      "absence": 8752,
      "rainfall": 8753,
      "claimed": 8754,
      "alternate": 8755,
      "preferred": 8756,
      "Histor": 8757,
      "marriage": 8758,
      "Egypti": 8759,
      "spinach": 8760,
      "Several": 8761,
      "announced": 8762,
      "Eli": 8763,
      "Ok": 8764,
      "hr": 8765,
      "inson": 8766,
      "deer": 8767,
      "peptide": 8768,
      "sule": 8769,
      "dust": 8770,
      "systemic": 8771,
      "markets": 8772,
      "adds": 8773,
      "Soviet": 8774,
      "passing": 8775,
      "reduces": 8776,
      "warf": 8777,
      "recommends": 8778,
      "Sugar": 8779,
      "killed": 8780,
      "progressive": 8781,
      "Administration": 8782,
      "ught": 8783,
      "Alex": 8784,
      "kish": 8785,
      "sche": 8786,
      "vul": 8787,
      "los": 8788,
      "lope": 8789,
      "urric": 8790,
      "tier": 8791,
      "plat": 8792,
      "outdoor": 8793,
      "clam": 8794,
      "minine": 8795,
      "spi": 8796,
      "brands": 8797,
      "kings": 8798,
      "franch": 8799,
      "coln": 8800,
      "biome": 8801,
      "Price": 8802,
      "Mexican": 8803,
      "Safe": 8804,
      "citizens": 8805,
      "Area": 8806,
      "fundamental": 8807,
      "Range": 8808,
      "acle": 8809,
      "coma": 8810,
      "beach": 8811,
      "thermal": 8812,
      "posal": 8813,
      "compress": 8814,
      "listing": 8815,
      "Offic": 8816,
      "averaged": 8817,
      "mutations": 8818,
      "physicians": 8819,
      "discipl": 8820,
      "Bul": 8821,
      "Glo": 8822,
      "Map": 8823,
      "Roc": 8824,
      "rite": 8825,
      "sla": 8826,
      "inations": 8827,
      "contents": 8828,
      "epider": 8829,
      "angular": 8830,
      "flam": 8831,
      "iants": 8832,
      "interface": 8833,
      "atively": 8834,
      "herbs": 8835,
      "Army": 8836,
      "Expl": 8837,
      "equator": 8838,
      "pathway": 8839,
      "ethnic": 8840,
      "Michael": 8841,
      "fingers": 8842,
      "speakers": 8843,
      "potato": 8844,
      "Benef": 8845,
      "sinus": 8846,
      "aphrag": 8847,
      "complicated": 8848,
      "trachea": 8849,
      "SD": 8850,
      "Sta": 8851,
      "VI": 8852,
      "yms": 8853,
      "throm": 8854,
      "recover": 8855,
      "illegal": 8856,
      "utility": 8857,
      "ument": 8858,
      "shrub": 8859,
      "ansion": 8860,
      "booster": 8861,
      "observed": 8862,
      "Remember": 8863,
      "varying": 8864,
      "Period": 8865,
      "flowering": 8866,
      "transportation": 8867,
      "gums": 8868,
      "extraction": 8869,
      "thousand": 8870,
      "Directions": 8871,
      "onomic": 8872,
      "advantages": 8873,
      "Similar": 8874,
      "candidate": 8875,
      "chamber": 8876,
      "Fur": 8877,
      "Java": 8878,
      "Mat": 8879,
      "SP": 8880,
      "gone": 8881,
      "pad": 8882,
      "yn": 8883,
      "uran": 8884,
      "ayed": 8885,
      "lift": 8886,
      "itionally": 8887,
      "boost": 8888,
      "interaction": 8889,
      "locity": 8890,
      "ordered": 8891,
      "175": 8892,
      "lake": 8893,
      "aham": 8894,
      "holder": 8895,
      "osphere": 8896,
      "analog": 8897,
      "assistants": 8898,
      "Celtic": 8899,
      "lifest": 8900,
      "renewable": 8901,
      "Lincoln": 8902,
      "circumstances": 8903,
      "impulses": 8904,
      "Grow": 8905,
      "rings": 8906,
      "thes": 8907,
      "reverse": 8908,
      "coconut": 8909,
      "amendment": 8910,
      "prison": 8911,
      "ptions": 8912,
      "165": 8913,
      "monella": 8914,
      "allergies": 8915,
      "printing": 8916,
      "competitive": 8917,
      "algorithms": 8918,
      "laptop": 8919,
      "flexible": 8920,
      "institutions": 8921,
      "grocer": 8922,
      "deductible": 8923,
      "opportunity": 8924,
      "iPad": 8925,
      "Hindu": 8926,
      "Last": 8927,
      "OF": 8928,
      "cine": 8929,
      "ales": 8930,
      "aspect": 8931,
      "shore": 8932,
      "syrup": 8933,
      "implant": 8934,
      "fluor": 8935,
      "filed": 8936,
      "Plants": 8937,
      "wrist": 8938,
      "hydration": 8939,
      "distributed": 8940,
      "applying": 8941,
      "toxins": 8942,
      "secretion": 8943,
      "industries": 8944,
      "Treatment": 8945,
      "adapt": 8946,
      "DVD": 8947,
      "Senate": 8948,
      "teaspoon": 8949,
      "Simp": 8950,
      "pier": 8951,
      "rof": 8952,
      "sink": 8953,
      "inhal": 8954,
      "atre": 8955,
      "experts": 8956,
      "agg": 8957,
      "shock": 8958,
      "compass": 8959,
      "instant": 8960,
      "Mean": 8961,
      "checked": 8962,
      "sterone": 8963,
      "spores": 8964,
      "occupational": 8965,
      "Foods": 8966,
      "housing": 8967,
      "browser": 8968,
      "Jersey": 8969,
      "Key": 8970,
      "MM": 8971,
      "bund": 8972,
      "hop": 8973,
      "sar": 8974,
      "intellig": 8975,
      "thesis": 8976,
      "sec": 8977,
      "mos": 8978,
      "fiction": 8979,
      "interpre": 8980,
      "transform": 8981,
      "helping": 8982,
      "zech": 8983,
      "officially": 8984,
      "azing": 8985,
      "pulse": 8986,
      "arent": 8987,
      "geographic": 8988,
      "computing": 8989,
      "quartz": 8990,
      "Effect": 8991,
      "Ken": 8992,
      "Ox": 8993,
      "mosqu": 8994,
      "amen": 8995,
      "permit": 8996,
      "poe": 8997,
      "gra": 8998,
      "mercury": 8999,
      "Chan": 9000,
      "conditioning": 9001,
      "capsule": 9002,
      "taxable": 9003,
      "Grand": 9004,
      "indicated": 9005,
      "negot": 9006,
      "situations": 9007,
      "Hosp": 9008,
      "Temperature": 9009,
      "prompt": 9010,
      "Popular": 9011,
      "chickens": 9012,
      "relieve": 9013,
      "220": 9014,
      "Flu": 9015,
      "OK": 9016,
      "mL": 9017,
      "coher": 9018,
      "diaphrag": 9019,
      "artists": 9020,
      "grape": 9021,
      "pricing": 9022,
      "carbs": 9023,
      "carrots": 9024,
      "archy": 9025,
      "laying": 9026,
      "periodic": 9027,
      "decades": 9028,
      "Peru": 9029,
      "classifier": 9030,
      "Apple": 9031,
      "inois": 9032,
      "breeding": 9033,
      "inherit": 9034,
      "________________": 9035,
      "assigned": 9036,
      "Physical": 9037,
      "NH": 9038,
      "gle": 9039,
      "iant": 9040,
      "pit": 9041,
      "tary": 9042,
      "acking": 9043,
      "processor": 9044,
      "everyday": 9045,
      "lasting": 9046,
      "League": 9047,
      "reality": 9048,
      "vaccines": 9049,
      "supervised": 9050,
      "ovascular": 9051,
      "extracted": 9052,
      "labels": 9053,
      "evaluation": 9054,
      "osteoarthritis": 9055,
      "deposits": 9056,
      "lactose": 9057,
      "Language": 9058,
      "Master": 9059,
      "Vers": 9060,
      "uters": 9061,
      "esti": 9062,
      "kemon": 9063,
      "mond": 9064,
      "anger": 9065,
      "gov": 9066,
      "node": 9067,
      "desire": 9068,
      "hoe": 9069,
      "supports": 9070,
      "flux": 9071,
      "basement": 9072,
      "azine": 9073,
      "breakfast": 9074,
      "Geo": 9075,
      "concerned": 9076,
      "duration": 9077,
      "Community": 9078,
      "village": 9079,
      "PM": 9080,
      "Pul": 9081,
      "Sk": 9082,
      "Scal": 9083,
      "VE": 9084,
      "cino": 9085,
      "eno": 9086,
      "chol": 9087,
      "ller": 9088,
      "illes": 9089,
      "opath": 9090,
      "distr": 9091,
      "glue": 9092,
      "performing": 9093,
      "overnight": 9094,
      "gradient": 9095,
      "Doctor": 9096,
      "chickenpox": 9097,
      "Small": 9098,
      "elevation": 9099,
      "institution": 9100,
      "dimensional": 9101,
      "stiffness": 9102,
      "tattoo": 9103,
      "nail": 9104,
      "ored": 9105,
      "ropol": 9106,
      "devi": 9107,
      "pean": 9108,
      "ours": 9109,
      "math": 9110,
      "update": 9111,
      "preced": 9112,
      "finally": 9113,
      "greens": 9114,
      "dependency": 9115,
      "powers": 9116,
      "lawn": 9117,
      "gasoline": 9118,
      "thorough": 9119,
      "anaerobic": 9120,
      "practical": 9121,
      "Corn": 9122,
      "Lymph": 9123,
      "guidelines": 9124,
      "Wales": 9125,
      "sharp": 9126,
      "sampling": 9127,
      "semester": 9128,
      "Ner": 9129,
      "ii": 9130,
      "rated": 9131,
      "enic": 9132,
      "liz": 9133,
      "cancers": 9134,
      "mentary": 9135,
      "encephal": 9136,
      "fructose": 9137,
      "eleph": 9138,
      "ankle": 9139,
      "purple": 9140,
      "machines": 9141,
      "atinine": 9142,
      "tablet": 9143,
      "fasting": 9144,
      "engineer": 9145,
      "carrying": 9146,
      "spiritual": 9147,
      "decided": 9148,
      "375": 9149,
      "Bot": 9150,
      "Czech": 9151,
      "Mont": 9152,
      "Pos": 9153,
      "Tar": 9154,
      "Vin": 9155,
      "amo": 9156,
      "samples": 9157,
      "wis": 9158,
      "ouston": 9159,
      "stal": 9160,
      "stories": 9161,
      "ride": 9162,
      "worse": 9163,
      "hered": 9164,
      "USDA": 9165,
      "entering": 9166,
      "businesses": 9167,
      "sentiment": 9168,
      "decreased": 9169,
      "Turkish": 9170,
      "dissolved": 9171,
      "Christian": 9172,
      "replication": 9173,
      "shelf": 9174,
      "macro": 9175,
      "Ask": 9176,
      "Iron": 9177,
      "Mas": 9178,
      "Pres": 9179,
      "Rose": 9180,
      "Tok": 9181,
      "pion": 9182,
      "tos": 9183,
      "leather": 9184,
      "som": 9185,
      "optim": 9186,
      "omer": 9187,
      "brary": 9188,
      "redness": 9189,
      "parties": 9190,
      "effort": 9191,
      "bled": 9192,
      "blend": 9193,
      "considering": 9194,
      "Pract": 9195,
      "Work": 9196,
      "nickel": 9197,
      "Technic": 9198,
      "religious": 9199,
      "binds": 9200,
      "styles": 9201,
      "Illinois": 9202,
      "cuisine": 9203,
      ".”.": 9204,
      "Base": 9205,
      "Ni": 9206,
      "Sav": 9207,
      "Victor": 9208,
      "orous": 9209,
      "pear": 9210,
      "iven": 9211,
      "fib": 9212,
      "commission": 9213,
      "releases": 9214,
      "Friday": 9215,
      "Major": 9216,
      "deduction": 9217,
      "sitting": 9218,
      "tomatoes": 9219,
      "challeng": 9220,
      "trauma": 9221,
      "district": 9222,
      "wich": 9223,
      "illy": 9224,
      "dehy": 9225,
      "loved": 9226,
      "celer": 9227,
      "lips": 9228,
      "quad": 9229,
      "ilet": 9230,
      "managers": 9231,
      "expense": 9232,
      "pollen": 9233,
      "Commission": 9234,
      "Pharm": 9235,
      "practition": 9236,
      "recognition": 9237,
      "relationships": 9238,
      "tightly": 9239,
      "Golden": 9240,
      "Different": 9241,
      "Christmas": 9242,
      "Nutr": 9243,
      "Occupational": 9244,
      "balanced": 9245,
      "AK": 9246,
      "EX": 9247,
      "Hard": 9248,
      "Rock": 9249,
      "Save": 9250,
      "Scient": 9251,
      "cig": 9252,
      "hall": 9253,
      "pale": 9254,
      "wants": 9255,
      "inn": 9256,
      "proportion": 9257,
      "union": 9258,
      "tration": 9259,
      "neph": 9260,
      "Inte": 9261,
      "election": 9262,
      "insol": 9263,
      "caps": 9264,
      "stell": 9265,
      "releasing": 9266,
      "ERT": 9267,
      "bulb": 9268,
      "Transfer": 9269,
      "pelvic": 9270,
      "beneath": 9271,
      "Spring": 9272,
      "legislation": 9273,
      "citizen": 9274,
      "Brazil": 9275,
      "generative": 9276,
      "Assistant": 9277,
      "Cus": 9278,
      "Cub": 9279,
      "Gir": 9280,
      "Kore": 9281,
      "SU": 9282,
      "nations": 9283,
      "phe": 9284,
      "dele": 9285,
      "bears": 9286,
      "whom": 9287,
      "abuse": 9288,
      "illus": 9289,
      "shri": 9290,
      "obes": 9291,
      "partner": 9292,
      "audit": 9293,
      "Neur": 9294,
      "Secre": 9295,
      "ticket": 9296,
      "showed": 9297,
      "complexity": 9298,
      "travels": 9299,
      "Such": 9300,
      "pertus": 9301,
      "ecosystem": 9302,
      "fifth": 9303,
      "accompanied": 9304,
      ",...": 9305,
      "Cand": 9306,
      "Given": 9307,
      "baked": 9308,
      "crown": 9309,
      "cattle": 9310,
      "ht": 9311,
      "hen": 9312,
      "tings": 9313,
      "zones": 9314,
      "icular": 9315,
      "cock": 9316,
      "seudo": 9317,
      "lime": 9318,
      "teams": 9319,
      "spas": 9320,
      "register": 9321,
      "smart": 9322,
      "modeling": 9323,
      "ordinary": 9324,
      "specialist": 9325,
      "Represent": 9326,
      "alkaline": 9327,
      "lipids": 9328,
      "peppers": 9329,
      "evaluate": 9330,
      "duty": 9331,
      "Street": 9332,
      "substitute": 9333,
      "sembly": 9334,
      "sensitivity": 9335,
      "diaphragm": 9336,
      "pertussis": 9337,
      "115": 9338,
      "Abr": 9339,
      "CI": 9340,
      "EM": 9341,
      "Wood": 9342,
      "bark": 9343,
      "lens": 9344,
      "mate": 9345,
      "nod": 9346,
      "sters": 9347,
      "illi": 9348,
      "phones": 9349,
      "fermentation": 9350,
      "aceae": 9351,
      "portions": 9352,
      "bonucle": 9353,
      "Develop": 9354,
      "homa": 9355,
      "Arctic": 9356,
      "benign": 9357,
      "equity": 9358,
      "valuable": 9359,
      "pathy": 9360,
      "clearly": 9361,
      "suffix": 9362,
      "investig": 9363,
      "illnesses": 9364,
      "Psycho": 9365,
      "Tunes": 9366,
      "(-": 9367,
      "Det": 9368,
      "Meas": 9369,
      "blow": 9370,
      "gri": 9371,
      "lighter": 9372,
      "ulo": 9373,
      "acres": 9374,
      "accompl": 9375,
      "lique": 9376,
      "poem": 9377,
      "opposed": 9378,
      "Station": 9379,
      "regulation": 9380,
      "insulation": 9381,
      "Altern": 9382,
      "Art": 9383,
      "Plus": 9384,
      "Soci": 9385,
      "hardware": 9386,
      "Answers": 9387,
      "Robert": 9388,
      "luck": 9389,
      "influenced": 9390,
      "explains": 9391,
      "sticks": 9392,
      "tomato": 9393,
      "pathogens": 9394,
      "Personal": 9395,
      "lifestyle": 9396,
      "Wild": 9397,
      "bol": 9398,
      "sap": 9399,
      "itter": 9400,
      "lee": 9401,
      "bec": 9402,
      "adium": 9403,
      "unable": 9404,
      "excre": 9405,
      "rial": 9406,
      "urethr": 9407,
      "actic": 9408,
      "opin": 9409,
      "closure": 9410,
      "Artic": 9411,
      "Author": 9412,
      "ATION": 9413,
      "studied": 9414,
      "recognize": 9415,
      "constipation": 9416,
      "colonies": 9417,
      "ocyte": 9418,
      "friendly": 9419,
      "acquired": 9420,
      "Maryland": 9421,
      "ultrasound": 9422,
      "parameters": 9423,
      "mosquito": 9424,
      "Body": 9425,
      "Rhe": 9426,
      "Tenn": 9427,
      "bia": 9428,
      "lith": 9429,
      "versal": 9430,
      "exterior": 9431,
      "boot": 9432,
      "thanol": 9433,
      "prefix": 9434,
      "conscious": 9435,
      "putting": 9436,
      "rison": 9437,
      "expansion": 9438,
      "planted": 9439,
      "Norway": 9440,
      "appet": 9441,
      "pyram": 9442,
      "hollow": 9443,
      "immunity": 9444,
      "vaccination": 9445,
      "educational": 9446,
      "seller": 9447,
      "config": 9448,
      "transported": 9449,
      "oxidation": 9450,
      "bags": 9451,
      "Smith": 9452,
      "scratch": 9453,
      "Delta": 9454,
      "tablespoon": 9455,
      "faith": 9456,
      "satellite": 9457,
      "Beach": 9458,
      "Eq": 9459,
      "Hg": 9460,
      "Having": 9461,
      "Ti": 9462,
      "bands": 9463,
      "iTunes": 9464,
      "mmol": 9465,
      "edges": 9466,
      "sector": 9467,
      "chop": 9468,
      "proce": 9469,
      "ambo": 9470,
      "univers": 9471,
      "oden": 9472,
      "strateg": 9473,
      "cords": 9474,
      "oblig": 9475,
      "desk": 9476,
      "temperate": 9477,
      "placement": 9478,
      "sheets": 9479,
      "Normally": 9480,
      "restrial": 9481,
      "returned": 9482,
      "preventing": 9483,
      "melting": 9484,
      "Finan": 9485,
      "concern": 9486,
      "eukaryotes": 9487,
      "distinguished": 9488,
      "Royal": 9489,
      "Explorer": 9490,
      "Gra": 9491,
      "NFL": 9492,
      "Pin": 9493,
      "VA": 9494,
      "bred": 9495,
      "dwarf": 9496,
      "juris": 9497,
      "lupus": 9498,
      "pour": 9499,
      "rounds": 9500,
      "itzer": 9501,
      "stated": 9502,
      "vet": 9503,
      "lox": 9504,
      "ares": 9505,
      "confir": 9506,
      "ribonucle": 9507,
      "pole": 9508,
      "shift": 9509,
      "discomfort": 9510,
      "Stone": 9511,
      "patio": 9512,
      "sheep": 9513,
      "USD": 9514,
      "acidic": 9515,
      "Prices": 9516,
      "ushed": 9517,
      "1995": 9518,
      "Monday": 9519,
      "concentrations": 9520,
      "hypertension": 9521,
      "infants": 9522,
      "arrival": 9523,
      "architect": 9524,
      "Peninsula": 9525,
      "hemisphere": 9526,
      "metamorphic": 9527,
      "Cold": 9528,
      "FO": 9529,
      "H2": 9530,
      "Line": 9531,
      "elder": 9532,
      "arc": 9533,
      "letic": 9534,
      "urb": 9535,
      "canal": 9536,
      "dio": 9537,
      "illary": 9538,
      "spices": 9539,
      "ateral": 9540,
      "tendon": 9541,
      "vibr": 9542,
      "hier": 9543,
      "safely": 9544,
      "Party": 9545,
      "happy": 9546,
      "Chemical": 9547,
      "Council": 9548,
      "pronunciation": 9549,
      "forcement": 9550,
      "coccal": 9551,
      "semantic": 9552,
      "directions": 9553,
      "freedom": 9554,
      "Choose": 9555,
      "precise": 9556,
      "definitely": 9557,
      "myelin": 9558,
      "pleasant": 9559,
      "Ama": 9560,
      "Oil": 9561,
      "RF": 9562,
      "rons": 9563,
      "yol": 9564,
      "independence": 9565,
      "orm": 9566,
      "enne": 9567,
      "edible": 9568,
      "velocity": 9569,
      "beth": 9570,
      "trunk": 9571,
      "quate": 9572,
      "mong": 9573,
      "corner": 9574,
      "fron": 9575,
      "Chro": 9576,
      "valves": 9577,
      "visa": 9578,
      "delicious": 9579,
      "entered": 9580,
      "Lee": 9581,
      "Gran": 9582,
      "torn": 9583,
      "reasonable": 9584,
      "stimulates": 9585,
      "phrine": 9586,
      "onym": 9587,
      "suggested": 9588,
      "beneficial": 9589,
      "Installation": 9590,
      "BT": 9591,
      "Cit": 9592,
      "DS": 9593,
      "Hz": 9594,
      "Squ": 9595,
      "orient": 9596,
      "secure": 9597,
      "confl": 9598,
      "spice": 9599,
      "spaces": 9600,
      "cycles": 9601,
      "grew": 9602,
      "template": 9603,
      "aker": 9604,
      "apparent": 9605,
      "laun": 9606,
      "measles": 9607,
      "dietit": 9608,
      "definitions": 9609,
      "raine": 9610,
      "sexually": 9611,
      "thropo": 9612,
      "successfully": 9613,
      "insert": 9614,
      "furniture": 9615,
      "Annual": 9616,
      "Bacteria": 9617,
      "wiki": 9618,
      "cognitive": 9619,
      "attorney": 9620,
      "Further": 9621,
      "240": 9622,
      "Bible": 9623,
      "Moder": 9624,
      "dating": 9625,
      "oy": 9626,
      "pid": 9627,
      "pace": 9628,
      "accredited": 9629,
      "democr": 9630,
      "trick": 9631,
      "plast": 9632,
      "Through": 9633,
      "ifts": 9634,
      "intu": 9635,
      "occurred": 9636,
      "Online": 9637,
      "dividing": 9638,
      "lawyer": 9639,
      "tails": 9640,
      "automatic": 9641,
      "Fees": 9642,
      "lymphocytes": 9643,
      "Malay": 9644,
      "puppies": 9645,
      "telephone": 9646,
      "distinctive": 9647,
      "pharmacy": 9648,
      "Commun": 9649,
      "meningitis": 9650,
      "Clar": 9651,
      "Fat": 9652,
      "Kansas": 9653,
[...]
